<unk>
<pad>
<s>
</s>
,
.
'
▁ka
▁a
▁ye
▁la
▁de
▁le
▁bɛ
▁et
a
▁ko
▁n
▁o
▁ne
-
▁ni
▁na
▁les
▁à
▁
▁l
)
▁ma
▁i
▁que
s
▁pas
▁u
▁min
▁se
▁«
w
▁qui
▁:
:
▁en
▁d
▁tɛ
▁des
▁kɛ
!
▁un
▁kan
▁du
▁be
▁qu
est
▁aw
▁pour
▁k
▁A
▁il
▁est
▁dans
▁y
▁vous
i
▁ce
▁don
▁ani
▁Il
▁fɛ
▁tun
▁dit
▁lui
▁s
▁b
▁fɔ
;
▁une
il
▁tu
▁"
▁an
▁bɛɛ
▁je
▁sa
u
▁mɔgɔ
▁O
▁au
?
▁ta
▁Ala
▁kɔnɔ
▁nin
▁nous
▁si
▁!
▁son
▁kelen
o
▁te
▁»
▁(
▁sur
▁da
▁c
▁dɔ
▁di
▁Le
▁sɔrɔ
▁bɔ
▁avec
▁par
▁N
▁-
▁leur
un
▁minnu
▁taa
.»
▁to
▁fo
e
▁mais
▁sont
▁U
▁dɔn
▁cɛ
▁ils
▁t
▁on
▁Et
▁Si
▁plus
▁La
▁bolo
▁C
▁fana
▁tuma
en
▁?
▁;
▁Ni
▁Yezu
▁Dieu
▁bien
▁yɛrɛ
▁ɲɛ
▁tout
▁fait
▁Les
▁nka
olu
▁in
nt
▁e
on
▁fɛn
▁aux
▁elle
▁ses
▁nana
▁yen
▁dugu
▁comme
▁kɔ
▁cogo
▁bila
▁ɲɔgɔn
ai
▁Ne
▁yɔrɔ
▁bi
tre
▁tous
▁wa
▁dun
▁m
▁faire
▁Mɔgɔ
▁kana
ils
▁même
▁kun
▁cela
▁so
▁femme
▁fa
▁peut
▁kɔrɔ
▁den
▁muso
▁L
▁moi
▁mɔgɔw
▁celui
▁fila
▁sera
▁Quand
▁gens
▁Mais
▁mon
▁Jésus
▁me
ba
▁kɛra
▁kuma
▁était
▁On
▁ba
▁anw
▁ou
▁Aw
aw
▁où
cette
▁deux
▁aussi
▁taga
"
6)
2)
5)
▁alors
n
3)
▁jour
1
t
▁ke
7
▁walasa
9
4
▁sigi
8
▁Elle
0
▁ont
▁ceux
▁Je
▁Un
▁Nka
na
▁caman
▁I
▁j
▁ton
y
r
▁dire
▁eux
▁vo
▁là
▁ces
▁monde
▁minɛ
▁avait
▁leurs
▁toi
▁san
▁donc
▁sira
une
▁Da
lu
▁village
la
▁yan
▁bon
▁fe
▁chez
▁homme
▁faga
▁quand
▁sans
▁dɔw
▁suis
an
▁ci
▁père
&
▁no
ko
▁Allah
▁baara
elle
▁grand
▁Ce
▁An
▁car
▁rien
▁Alors
▁été
▁mère
▁bee
▁mana
▁fils
▁kɔni
nin
▁tigi
▁ji
▁va
à
ya
▁su
▁Seigneur
▁encore
▁ban
▁personne
▁man
▁ainsi
▁hommes
eau
▁petit
▁être
▁beaucoup
▁ale
▁fara
là
▁mort
▁wele
▁Nous
▁soro
▁taara
▁maison
tu
le
▁sen
li
▁tile
▁Matigi
▁entre
même
".
."
ait
len
▁jusqu
▁do
▁sara
ant
?»
▁dis
▁soit
▁Tu
ont
ce
▁fɔlɔ
▁chose
▁kono
▁autres
▁bo
▁Ka
▁ça
▁donna
ra
▁Silamakan
▁tigɛ
▁nuit
▁Krista
▁sɔn
▁femmes
vous
▁Bakari
▁tête
▁saba
▁kama
kan
▁ɲini
▁mun
▁vie
▁fille
▁fois
▁jɔ
▁jamana
▁Christ
▁bɔra
▁mɛn
èrent
»
lt
▁waati
▁wɛrɛ
ci
autre
gt
▁enfants
▁filɛ
▁quelqu
é
▁kalan
homme
▁katugu
▁bɛna
▁terre
▁ici
▁fut
▁tan
▁roi
▁hakili
▁famille
▁yere
▁très
ent
▁trois
sp
▁autre
er
ez
▁E
▁ninnu
▁devant
ons
▁nos
ni
▁contre
▁D
...
▁boli
▁toutes
▁tɔgɔ
▁toute
▁nom
▁bin
▁répondit
que
▁En
▁Celui
▁dont
es
▁jira
▁après
▁non
▁temps
»,
▁jugu
!»
▁kɛlɛ
».
▁avoir
hui
▁faut
▁fan
▁doit
▁dumuni
était
▁Ségou
▁jamais
▁jaabi
▁kosɔn
▁hali
▁walima
▁Nin
▁S
▁sigilen
▁ɔ
▁puis
▁étaient
▁Fa
▁iko
▁Maa
fin
▁ɲuman
▁ro
▁sous
▁vais
▁tagara
▁ɲininka
ment
▁point
▁seul
▁dirent
▁avons
▁sogo
▁Segu
▁balo
▁jigin
▁J
Allah
▁kosɛbɛ
▁K
autres
▁parce
▁[
▁tugun
▁Ko
▁tiɲɛ
aient
▁part
▁manger
▁frère
▁vers
▁choses
▁dan
▁donne
▁laban
▁furu
À
▁enfant
▁parole
▁jours
▁vérité
it
▁fit
▁wuli
▁Car
▁Que
▁mari
▁fini
▁chef
▁dɛ
▁donner
▁jɛ
▁main
▁grande
▁sabu
▁Mali
▁ten
▁mal
N
▁voir
▁Fanta
▁mit
z
▁sisan
▁prit
enfant
tɔ
▁Eh
as
▁mil
▁moment
mi
▁diya
▁nɔ
▁porte
Je
▁disent
ma
▁vint
▁prendre
▁es
▁pays
▁bonne
▁avant
▁frères
▁wulila
moi
▁jama
▁koro
▁Pɔli
▁jeune
▁disant
▁siran
▁quelque
▁cet
▁cause
▁bara
hyène
▁dɔrɔn
▁mes
▁mots
▁bonya
ka
▁jo
▁elles
▁nye
▁ville
▁wolo
▁fili
▁kɛnɛ
hapitre
▁vieux
▁sommes
▁wali
▁maa
▁vient
▁tora
▁mara
▁foi
▁sɛbɛn
A
au
▁comment
▁Au
▁Hakili
▁sababu
▁aller
tigi
▁fura
▁donné
▁veut
▁fen
▁Zan
▁disciples
▁Qu
▁tes
▁kera
▁kɛlen
▁siri
▁fisa
▁Konaté
▁Père
]
▁mains
▁tɔw
▁font
▁corps
▁Konate
▁mieux
▁diɲɛ
▁trouve
▁santé
ujourd
yɔrɔ
▁Pour
▁veux
da
▁yeux
▁lieu
▁kɔfɛ
▁denw
▁celle
▁jan
▁dannaya
▁bilen
▁dɛmɛ
être
▁daminɛ
▁venu
▁dalen
nous
▁vu
▁kɛnɛya
▁as
▁Tout
▁Puis
▁brousse
▁ɲi
▁Piyɛri
▁foyi
▁bɛn
▁nyogon
▁hakɛ
entre
Ne
▁effet
▁Vous
▁place
▁peuvent
▁peu
▁kalandenw
▁petite
▁venir
▁fin
▁dugukolo
▁sacrifice
▁saya
▁Après
▁chercher
▁lajɛ
I
▁partit
▁yoro
▁cha
▁fais
▁route
▁toujours
▁tila
▁êtes
▁nyini
▁Jɛ
▁raison
▁&
▁Tous
▁grâce
▁Or
▁jiri
▁segin
▁pouvoir
▁alla
▁avez
▁parler
▁Muso
▁mettre
▁seulement
;/
▁bouche
▁f
muso
▁Makhan
▁taama
▁mis
toi
▁tɔ
▁maître
▁naani
▁vieille
▁diyɛn
kɛ
▁barika
▁tuer
▁Den
▁côté
▁M
▁sago
▁wari
▁viande
▁sama
▁maintenant
▁voici
▁daɲɛ
▁vaut
▁Db
▁chacun
▁bana
▁De
▁Jan
▁Ma
▁paroles
▁reste
▁tiyɛn
ye
▁Paul
▁dogo
je
▁labɛn
▁Masa
▁vois
▁peur
ne
▁jeunes
▁minkɛ
▁assis
avaient
▁nɛgɛ
▁kulu
▁deli
▁Cela
▁chemin
▁peux
▁fanga
▁saraka
▁ja
▁denkɛ
▁yɛlɛma
▁trouver
de
▁bawo
mêmes
▁Juifs
▁feu
kun
▁Oui
▁petits
▁musow
▁ciel
▁leva
▁chasseur
▁premier
cogo
▁griots
▁sais
▁sens
eux
▁fétiche
▁suruku
▁kisi
Il
▁joli
ation
▁mogo
▁ca
▁synonymie
den
▁bora
près
▁pendant
▁champ
▁T
▁lièvre
▁bois
▁Pierre
▁Zifuw
▁pris
▁mariage
▁présent
▁nafa
▁seront
▁jɔn
▁mago
▁aura
▁banna
▁kasi
kelen
▁Cɛ
▁chien
▁peuple
▁Bawo
bas
▁entendu
▁pourquoi
▁jumɛn
▁duuru
▁seule
▁tasuma
",
▁tɛmɛn
▁wo
▁wɛrɛw
▁miiri
▁Monzon
▁Ayiwa
▁cheval
▁quoi
▁sait
▁Ani
▁Mande
baga
▁boire
▁déjà
▁parents
▁guerre
▁mot
▁tɛmɛ
▁kari
▁vraiment
bini
▁eu
▁Kɛ
▁falen
▁travail
▁daga
▁marmite
▁jigi
argent
▁milieu
▁Qui
▁sigida
▁personnes
▁Sa
▁Dans
▁pieds
▁nafolo
▁synonymes
▁Ah
▁juru
▁gɛn
▁dara
▁savoir
re
▁kunna
Esprit
▁tulo
▁lase
▁B
▁passer
▁Kani
▁disait
▁woro
▁eut
▁jate
▁propre
▁Fils
▁Ba
▁compte
nen
▁farikolo
les
▁met
▁nouveau
▁moins
▁jiginna
▁Maître
▁matin
▁balimaw
▁foule
▁kɔrɔɲɔgɔnmaya
▁wulu
▁P
▁faama
▁tugu
▁Ainsi
▁kurun
▁dusukun
▁trou
▁vrai
▁passe
▁Jata
▁derrière
▁Ta
▁cas
▁nan
▁train
▁quatre
▁passé
▁kanu
▁Dian
▁Ganda
▁baasi
▁Hali
▁près
ient
avoir
▁voilà
▁kɔrɔɲɔgɔnma
▁kuntigi
C
▁!"
!"
▁mourir
▁Monson
▁kungo
▁ɲɔ
▁laisse
▁grands
▁?»
▁foro
▁Dionkoloni
▁Diata
▁viens
▁Voilà
▁teri
▁morts
▁Loi
▁Jérusalem
▁certes
▁fleuve
elles
▁kala
▁dusu
▁tour
▁rendre
▁dɔgɔ
▁dunan
▁tant
▁Jɔnkolonin
▁disaient
▁dira
▁Zerusalɛmu
▁Bilissi
▁Kuma
▁Comme
▁malade
▁besoin
kɔrɔ
duman
▁sanga
▁gros
▁droit
▁Don
▁kiri
▁griot
▁Anw
anw
▁repas
▁Manding
▁Fɛn
▁suw
▁rend
Cette
▁kow
▁masakɛ
▁tige
▁arriva
bagaw
▁Ceux
▁dilan
▁appelle
▁demande
▁seli
▁kɔlɔsi
▁certains
▁!»
▁nege
▁partie
▁pu
▁rouge
▁parle
aujourd
▁mauvais
▁Bilisi
▁depuis
▁tel
▁ti
▁Se
avons
abord
▁ensemble
▁chair
▁Mon
▁Jean
▁calebasse
▁Masaya
▁allons
▁cou
avait
▁lajɛlen
▁gɛlɛya
▁laada
▁aucun
▁sortir
▁nombre
▁demanda
▁ɲɛsin
▁Comment
▁chèvre
▁bambara
▁également
▁loin
▁trouvé
▁lamɛn
▁péché
▁connaît
▁baro
▁partir
▁couteau
▁paix
▁koyi
▁force
▁mine
▁mange
▁tombe
selon
Aw
▁fari
▁oiseau
▁rɔ
mɔgɔw
▁trop
▁ayiwa
▁Bɛɛ
▁Katugu
▁kunkolo
▁sin
▁kanto
▁pied
▁mugu
l
▁vas
▁tomber
▁riz
▁longtemps
▁croyants
▁quelques
▁prend
ta
▁faites
▁vue
▁kalo
▁mirent
▁voit
▁écrit
▁manière
▁venue
▁Kibaro
▁karamɔgɔ
▁tué
▁allait
▁Voici
▁ami
▁dama
▁baba
▁Son
▁sang
▁nama
avez
so
▁Tara
▁masa
és
▁sani
▁sɛnɛ
▁lakali
▁Royaume
▁sortit
nama
ji
▁ju
▁Kita
▁soir
Même
▁Senu
▁garde
jan
▁Tuma
or
to
Si
▁kolo
▁limaniyana
▁sept
▁1
▁Moi
▁pe
▁nyɛ
▁fera
▁wolonwula
▁sujet
▁kojugu
▁arrive
▁dos
▁aussitôt
▁descendre
▁sini
▁Bien
▁fer
▁Min
▁mois
▁bɔlen
▁mise
taw
▁kira
▁justice
▁compris
▁ga
▁koni
▁tue
▁poudre
▁fosi
▁yɛlɛn
▁muru
▁entrer
▁bange
▁filles
▁jamakulu
▁gafe
agit
▁ala
▁tɔɔrɔ
▁sɔrɔla
▁Tɔgɔ
▁gloire
▁quiconque
▁togo
▁façon
▁ladon
▁affaire
▁fɔra
▁puits
baw
▁F
▁forgeron
▁vont
▁2
▁seereya
▁sugu
▁gɛlɛn
▁venus
▁prix
▁tondion
▁ceci
▁entra
▁kɛmɛ
▁reçu
▁donso
fɛn
▁envoyé
▁resta
▁tali
▁gosi
▁Wa
▁suma
▁sinon
rticle
▁yo
▁arbre
▁men
▁Par
arbre
▁beau
▁Dugufinnin
▁bord
▁livre
▁janfa
▁denmuso
accord
▁malheur
▁wale
▁selen
▁faamu
▁Ale
▁sauce
▁fɔlen
▁dernier
▁pierre
▁dennin
▁feere
▁bamanankan
▁quel
don
▁jɔlen
dessus
▁problèmes
▁fla
▁conte
▁vit
▁joie
▁Lui
▁kene
▁ɛ
▁bali
▁tambour
▁belle
▁Sariyas
▁serait
▁niyɔrɔ
▁nkalon
▁Non
▁fête
▁nouvelle
▁».
▁célèbre
▁sankolo
▁peau
▁yɛrɛw
▁bere
si
ès
▁file
▁kokura
▁garçon
▁jɔyɔrɔ
▁travers
▁connaître
▁kura
▁Dugu
▁suite
▁folo
▁kɛli
!...
Nous
▁ntalen
▁kumaw
▁première
▁langue
▁yaala
▁kele
▁were
▁soient
▁sɛ
▁jinɛ
▁marché
▁fusil
▁signe
▁cinq
▁dɔlɔ
▁Ardo
▁voix
▁ŋana
▁bière
▁Denkɛ
▁lorsque
vait
▁p
c
▁arrivé
▁canari
▁marigot
▁maladie
▁Su
▁3
▁caya
vient
▁flûte
▁chambre
▁Livre
fils
▁sanu
▁langues
▁nourriture
▁riche
▁ans
▁année
▁Lorsqu
▁villages
▁diyara
▁quelle
▁masɔrɔ
▁dunun
jugu
denw
▁?"
▁dɔnkili
▁poule
▁doni
▁demander
baliya
▁sɛgɛn
▁queue
▁sɔnna
tɛ
▁coupe
▁coeur
▁lorsqu
Tu
▁pouvait
▁condoléances
▁feuilles
▁Tiyɛn
▁bolila
▁ventre
▁binna
▁basi
▁coup
▁waleya
▁noir
▁question
▁problème
▁fruit
▁kolon
▁pan
▁vinrent
bali
▁pluie
▁koɲuman
▁juguya
▁dinye
esprit
▁layidu
▁kitabu
▁firent
▁Jamasenu
ɛ
▁foli
▁malo
▁fɛɛrɛ
▁Dalima
▁abada
▁faisait
▁jɛra
▁sort
▁jɛlen
▁baaraw
▁Tiɲɛ
▁poisson
▁champs
▁Saint
▁sauf
Le
▁Dɔw
▁kunun
▁kalifa
▁meurt
▁dès
kaw
▁1.
▁grave
▁sorcière
▁coutume
ions
▁dehors
▁misi
▁troisième
▁bras
▁2.
▁membres
▁Lorsque
▁karité
▁Mun
ke
▁bout
▁Toute
▁besoins
▁tiga
▁dessus
▁poulet
▁buuru
be
▁bulon
Où
▁confiance
▁ensuite
▁Faamanjè
▁yɛlɛ
▁hakilina
▁kaburu
▁Est
▁Cha
▁Dis
▁charge
▁mangé
▁dafa
Seigneur
▁fasse
▁aucune
E
▁dibi
▁Ses
après
▁kola
▁nisɔndiya
▁Sigida
▁doivent
▁Depuis
▁cours
lan
▁chat
▁celles
▁esclaves
▁haut
▁sorte
▁exemple
▁case
▁Des
▁uns
▁dalajɛ
▁Massa
▁journée
▁Personne
▁sabanan
▁joona
▁Bɛ
▁tulu
▁bonnes
▁ɲɛna
▁communauté
in
▁sœur
▁labɔ
andis
▁Faamanje
▁keme
▁Nyeba
▁nyɔgɔn
▁autour
▁nɔgɔya
▁Là
▁jara
▁ku
▁cru
▁prends
▁vent
▁kunbɛn
▁pauvre
▁marifa
▁chiens
▁allé
▁laisser
▁baobab
▁Niéba
▁développement
▁Ngolo
▁tilennenya
▁Alabatosoba
ɲa
▁bɛnna
▁pères
▁nɔfɛ
▁jɔnni
▁plusieurs
▁Marie
▁envers
▁dɔɔnin
▁dɔgɔnin
▁denmisɛnw
▁trouva
sa
▁retour
▁témoignage
▁amis
▁fort
▁pourra
▁hɛr
▁lendemain
▁partout
▁demain
▁Bamako
▁endroit
▁dix
▁cent
▁siyaw
▁jalaki
▁kanuya
aime
▁sɔnnikɛla
▁minɛn
▁cadet
▁porter
▁tɛgɛ
▁sabati
▁bugɔ
▁sol
▁fali
▁connais
kow
▁Ɛntɛrinɛti
▁volonté
▁Douga
▁croient
▁puissance
▁coucher
▁Pharisiens
▁pense
J
▁yeelen
▁laver
▁médicaments
▁viennent
▁kumakan
▁affaires
▁bato
▁vestibule
▁Fɔ
▁Sɔrɔ
▁lumière
▁laquelle
▁soleil
▁seginna
▁propos
▁limaniya
▁sûr
▁duman
d
▁ciden
▁voyage
▁jeli
▁wula
▁sanfɛ
▁fétiches
▁dugutigi
delà
▁circoncis
▁Moïse
▁souvent
▁senɲɛ
▁dites
▁mille
▁cieux
nbalan
▁face
▁telle
di
▁kunnafoni
jɛ
asseoir
▁pain
▁balima
▁gansan
▁lamini
▁ayant
▁peine
▁mauvaise
▁bɔnɛ
▁debout
▁Silanden
▁bɔgɔ
▁kɔgɔji
▁nyininka
h
m
▁wasa
tuma
▁permet
▁jɛya
▁chefs
▁faa
▁Tile
▁kamalen
▁jɛgɛ
k
tion
▁dege
▁sunɔgɔ
▁turu
▁dingɛ
▁tanu
▁plutôt
▁dois
▁sonsannin
▁somɔgɔw
▁pauvres
mugu
Dire
▁pleine
▁blanc
▁plat
▁mères
▁mur
▁kɛrɛ
ahi
▁saniya
▁dalilu
▁Gurumi
▁sɔnni
▁arrivèrent
▁mer
▁animaux
▁nɔgɔ
▁savez
▁biri
▁yafa
▁fond
kisɛ
▁sɛbɛnn
▁montagne
▁panier
▁maganna
kuma
▁sacrifices
▁bari
▁siɲɛ
▁Gouroumi
▁envoya
Pilati
▁païens
▁remplit
▁viendra
▁soi
▁joue
▁!'
▁fure
▁mankan
▁fur
▁tɛn
▁Wala
▁kabako
▁g
▁dimi
Que
▁plaisir
▁ben
▁propriétaire
▁Lariba
▁4
▁segere
▁cɛw
▁anciens
▁laissé
▁lever
▁Fariziyɛnw
▁esprit
▁vivant
▁ɲɛfɔ
▁bisimila
éléphant
▁ɲininkali
▁5
▁agréable
▁juste
▁esclave
▁lait
kura
▁faamuya
▁Ntalen
▁naamu
▁kɔɲɔ
se
▁garder
endroit
▁rester
▁groupe
▁wara
▁varan
▁3.
▁semaine
▁serpent
▁singe
▁sɔsɔ
cɛ
▁bala
▁Nantɛnɛn
▁sɛgɛrɛ
▁Amadu
▁soyez
▁heure
▁crainte
▁Bon
fɛnw
▁parti
ntan
iez
▁prophètes
▁seere
▁aurait
▁fu
▁forgerons
▁Nci
Évangile
▁danga
▁margouillat
▁prophète
▁faantan
sara
▁jeni
tigiw
▁subaga
▁belebele
▁sifaya
et
▁douze
▁Simɔn
▁lahara
▁Bi
▁Saya
▁allez
▁long
▁jakuma
▁Ces
▁plein
▁saga
▁kulusi
▁Bana
▁sac
▁To
▁ɲinɛ
▁biens
▁signes
▁filen
▁lit
▁marabout
▁vienne
▁Kun
▁Cɛkɔrɔba
écria
▁nyuan
▁mêmes
▁rencontre
▁tobi
makhan
▁Sitanɛ
▁Quiconque
▁Simon
tam
▁Hé
▁appeler
▁10
bolo
igikan
▁coq
Nin
▁Kalanden
▁Hee
▁gundo
▁Pourquoi
▁noirs
▁créé
me
▁possible
▁foyer
man
▁Quel
nya
▁ɲinin
▁arrivée
▁recherche
▁jurumu
▁Jama
▁chasse
▁facile
▁Simbalan
▁Temple
▁dɔnniya
▁kɛrɛnkɛrɛnnen
vaient
▁regarder
▁siranna
▁wala
aux
herbe
▁jeliw
▁walew
▁appelé
▁digi
intérieur
▁npogotigi
▁défunt
▁circoncision
▁ninw
▁vache
▁chant
▁mɛlɛkɛ
▁Présente
▁lion
▁prière
sen
▁aveugle
tigiya
▁lors
▁lajerelen
▁Eaux
▁jeter
▁rendit
▁Certes
▁jukɔrɔ
▁lève
▁cogoya
▁famu
▁...
x
▁moyens
▁bêtes
▁yelen
▁garçons
▁maga
▁vivre
▁devenu
▁taabolo
▁permis
▁kɔngɔ
▁misali
▁sɔgɔma
▁Famori
▁kɔsegin
▁faim
▁koroke
▁kogo
▁Sankolo
▁bamanan
▁tam
▁jitigi
▁Abrahamu
▁apprendre
▁sirilen
b
▁apporte
▁dafalen
▁étant
▁devint
▁dayɛlɛ
▁couper
▁dents
▁ŋaniya
▁fruits
avais
▁Ee
▁ɲama
▁Fo
oiseau
te
▁banbali
▁moden
▁chasseurs
▁châtiment
▁pâte
▁société
▁allèrent
▁Certains
▁sécurité
▁kafiriyara
▁kalanden
prirent
▁waleyali
▁San
▁activités
▁prêtres
▁finit
▁chanter
sira
▁basa
ɲɛ
bɔ
▁passa
lui
▁cɛnin
aller
▁difficile
▁salen
▁villageois
▁nalen
▁donnera
▁aîné
ux
▁atteint
▁Nantenen
▁Jour
▁ressuscité
▁Bilali
▁Moyizi
▁trouvait
▁préparer
▁parlé
histoire
▁populations
étranger
▁marche
▁appris
▁tɔnjɔnw
Ala
masa
▁assez
O
▁re
▁maladies
umɛ
▁mourra
▁lankolon
▁dabila
nnen
▁voie
▁contraire
▁secret
▁6
▁welewele
▁cœur
▁kuru
▁ait
▁faw
go
▁Galilée
▁Galile
▁taureau
▁Pilate
▁ɛntɛrinɛti
▁reprit
▁Aussi
▁répondirent
▁Sougoulou
▁nombreux
▁ŋaraw
▁hinɛ
▁Bala
père
▁Nji
▁farala
▁/
▁8
▁entendre
▁Sigi
▁dabali
▁senu
▁ɲɛda
▁sabbat
▁possède
▁refuse
▁médicament
▁grain
▁kɛcogo
▁Penda
▁Macina
▁Suruku
▁oreilles
▁wolola
▁sel
▁tomba
▁petites
▁Cidenw
▁arriver
▁devenir
▁présente
▁régions
▁Toi
▁sigira
▁Grand
ici
▁demeure
▁can
▁montrer
▁suman
▁propres
▁formation
▁cadavre
▁gibier
▁banabagatɔ
▁kɔdon
appelle
▁yeli
▁donni
▁Bin
▁Camara
▁mugan
▁sagesse
▁colère
▁Touma
▁savent
▁Farafinna
ɲɔgɔn
▁Kamara
▁fil
▁Sisan
▁filanan
▁masaya
▁Karamɔgɔ
▁pattes
▁dila
▁mori
▁sorciers
▁fou
▁Ja
▁Jɔnni
▁vaches
▁kɔlɔn
▁coutumes
▁questions
▁Kira
▁grandes
▁cɛsiri
▁jɛn
▁jon
▁moyen
▁Bambara
▁capable
▁kabakuru
▁enceinte
▁damadɔ
▁premiers
▁Ami
▁voulu
▁frappa
▁Madi
enfants
▁visite
▁sɛbɛnni
°
▁Nkolomu
▁Poulori
▁Pulɔri
▁lafiyɛndon
▁Jasun
▁mosidaa
▁Samou
▁Nkolomou
▁fɛnw
▁partirent
▁respect
▁Deux
▁Bari
▁kɛnɛyali
▁jolen
▁Duga
▁yiriwa
▁senkan
▁kaba
▁produits
mère
kala
▁offrir
▁savons
▁entends
▁Jon
où
étaient
▁faso
▁musaka
bien
amour
▁forte
▁serviteur
▁sorcier
▁makɛ
▁nyuman
▁nul
▁ntura
▁bague
▁caillou
▁Dantɛ
▁Sambou
▁hɔrɔn
▁musokɔrɔnin
▁entier
▁venait
▁pourtant
nna
▁magan
▁Ou
▁génies
▁4.
▁bilakoro
Ngala
▁raconter
▁sois
▁sortes
frère
▁kofɔ
Mon
▁15
▁puisse
▁manque
Kira
▁mets
▁bouc
▁pantalon
▁puissant
▁taamasyɛn
▁kɔrɔta
▁kali
▁delili
▁ennemi
▁aime
▁So
▁tort
▁Isirayɛli
▁siya
▁voyant
▁h
▁nyin
▁surtout
▁bɛnkan
▁vite
▁segi
▁poser
▁Diɲɛ
▁ra
▁donnent
▁kɛrɛfɛ
La
▁surun
▁tinye
sigi
▁lajigin
école
▁Taa
▁suivant
▁bugu
?"
▁saison
▁épouse
▁suguya
▁ɲinini
▁laɲini
▁posa
ieux
▁David
▁Ensuite
▁Jerika
▁pouvez
▁Sibiri
▁dorokolen
▁senw
▁allaient
An
▁Papa
▁Ɔwɔ
▁juguman
▁waso
▁koɲɛ
▁Ayi
ur
▁servir
▁commence
S
▁lequel
▁jaa
▁kisɛ
Accord
ront
heure
Mɔgɔ
▁courant
▁foules
▁donnerai
▁entend
▁connaissance
huile
▁tilennen
▁balimakɛ
rent
▁appela
▁Du
▁jumen
ième
▁longue
▁salut
assit
▁croit
▁mòsi
▁voulait
▁Nord
▁tanga
▁ɛɛ
▁Sur
▁tugura
▁faisaient
▁dɛgɛ
▁bu
▁apôtres
quel
▁faisant
▁yɛlɛnna
▁datugu
▁guerriers
▁Minn
▁monter
▁girin
▁sanji
▁V
▁labila
▁No
▁quant
▁gan
▁Bama
entrée
▁Di
▁yiriwali
Eh
▁crocodile
▁début
▁sariya
▁remède
▁bâton
▁doigt
▁messager
▁mɔ
▁dɔnni
▁jija
▁tubabu
▁couscous
▁figuier
▁Sankarani
▁Dawidi
▁Waati
▁chance
tigiba
▁Soma
▁pleurer
▁Sama
▁mandiya
▁donnée
▁tɛmɛnna
ité
▁Internet
▁objet
▁Leur
lenw
▁yelema
▁retourna
▁sigili
▁gengen
▁togoda
eurs
▁Tin
▁rendu
▁Donso
▁seko
▁péchés
nan
▁perdu
eur
▁taasi
ée
▁dɔwɛrɛ
▁âme
▁mesure
ou
▁bagan
eaucoup
▁sorol
▁regard
▁répond
▁bla
▁récompense
▁pitié
▁revint
▁honte
▁Sangara
▁Sani
▁demandé
▁wagati
▁battre
▁serez
▁kɔrɔkɛ
▁sanni
▁fule
fa
▁anges
▁Bɔ
▁Ji
▁mɛlɛkɛw
▁nata
▁Y
▁dow
▁concerne
▁Erɔdi
▁fle
yoro
▁donnes
jo
▁sɔngɔ
▁denmisɛn
ti
âmes
▁Musow
▁œuvre
▁dé
▁dɛsɛ
▁Aladɛn
▁bouillie
▁haali
▁restèrent
▁donsokɛ
▁kɛlɛbolo
▁diinɛ
▁Siga
▁nyi
▁miel
▁existe
▁jouer
▁puisque
▁jɔnjɔn
▁étranger
▁transforma
▁beaux
▁sein
▁actions
▁cents
▁syɛ
▁Quelle
▁sig
▁suivi
▁arbres
▁bas
tiɲɛ
▁lakana
▁Va
afin
▁maisons
▁naissance
▁marcher
▁rivière
▁jalan
▁proche
▁richesse
▁région
▁R
▁bons
▁droite
▁kini
ge
▁aladeli
▁cache
▁travailler
law
▁tata
▁Faantannje
▁Khutuma
▁Maasina
▁calao
▁Famagan
▁kuruwa
▁Faantannjè
▁kafiriya
▁fût
▁Tata
▁hakilimaya
▁francs
▁plaît
▁voyez
▁:«
▁habitants
▁dugujɛ
▁rendent
▁Amadou
▁Ça
▁Yala
▁autant
▁Adamaden
▁Abraham
▁dɔnko
▁tirer
kulu
kuru
▁ɲumanw
▁combat
▁marier
▁kumana
bara
▁wuluw
▁dɛmɛn
Église
▁G
▁cherche
dennin
▁meilleur
▁méchant
▁ayi
▁sache
▁corde
▁produit
▁bête
▁service
▁foroba
▁grosse
▁Sɛbɛn
▁signifie
▁miséricorde
▁mourut
▁Naamu
▁lépreux
▁charité
▁noix
▁Dantè
▁Européens
▁suivre
▁quarante
▁ntori
▁misère
▁descendit
▁Khem
▁mettent
▁morte
▁scribes
▁oiseaux
▁ciyɛn
▁dannatigiw
▁compagnons
▁bɔn
▁saints
▁susu
▁aide
▁Na
▁12
▁cira
▁auront
▁seras
arrêta
▁base
▁dormir
▁nouvelles
▁coups
▁jeta
▁fɔla
année
du
▁sɔgɔ
▁Dan
Ni
En
▁rôle
▁aider
▁jamanatigi
▁blanche
▁fiyentɔ
▁doute
▁kunko
▁ntolatan
prenant
▁jou
▁Malik
▁grâces
▁furakɛli
▁cadeau
▁Khoutouma
▁veulent
▁Chacun
▁religion
▁Bagi
▁Parties
▁doron
▁Bagui
▁kɛlɛden
▁canne
▁certainement
▁prennent
▁Ɲɛ
▁rurales
▁senfɛ
▁Avant
▁envie
▁foroko
▁témoins
ement
fɔ
▁sun
▁descend
▁duguw
▁sokɛ
▁riches
▁Celle
▁cɛkɔrɔba
bana
gonya
▁sigiyɔrɔ
▁ô
étais
pour
▁offre
▁Dire
adressa
▁querelle
▁seri
▁récolte
▁faveur
▁table
▁libre
▁visage
▁mensonge
▁baw
▁né
▁commencé
▁chanta
▁hadamaden
▁jiidi
▁tinyɛ
lon
▁cérémonie
▁courut
▁différentes
▁Khém
▁bruit
▁craignez
▁Jine
▁huit
▁Masakɛ
▁Boli
▁kaso
▁sungurun
▁pourrait
▁danser
ju
▁laissa
▁nɔɔrɔ
Un
▁nk
▁ɲumanya
▁continua
▁pains
▁Kɔnɔ
leur
▁latigɛ
▁numu
âge
▁kɛtaw
▁fiɲɛ
▁foni
jama
ku
▁juguw
▁Kabin
▁16
▁ɲɛnabɔ
Israël
Celui
Matigi
▁makari
▁kalanni
bila
▁lakunun
*
▁advint
▁habada
▁ténèbres
▁alabatoso
ɲankata
▁Cependant
▁yamaruya
▁jugement
▁Bamanan
▁haya
▁Aladin
L
▁devons
▁denke
▁armée
▁furakɛ
▁nombreuses
▁kafiriw
▁oeuvres
▁villes
▁serviteurs
▁fabrique
▁danna
▁cesse
▁crois
aube
▁25
▁Kuru
▁nsira
appelait
▁hyène
lama
hommes
▁7
▁60
▁jette
▁baji
Pourquoi
Voici
eurent
▁sec
▁responsable
▁lafili
▁condition
▁désert
▁filet
▁retourne
▁avis
▁vieilles
▁nyena
ri
▁auras
▁éternelle
▁période
▁dumunni
▁fewu
▁terike
▁yɛrɛkun
▁telefɔni
▁eau
▁11
▁jateminɛ
▁reconnaît
▁traces
▁fisaya
▁baramuso
▁répondre
▁montre
▁Balo
▁kɔgɔ
▁dla
▁kɔnɔna
▁tɛmɛna
▁détruit
▁cri
▁danse
▁Sira
▁Tant
▁temen
▁cour
▁sigidaw
▁profit
▁jɔnw
aide
▁nafama
aire
aîné
œil
Est
▁pareil
▁culture
▁familles
▁guerrier
▁loi
▁shu
▁deme
▁5.
▁nɛnɛ
▁Barinabe
▁Miirizan
▁pouvons
▁résurrection
▁parlait
▁denbaya
▁ferai
▁sinsin
dugu
▁tenir
▁mouches
▁blen
▁Faantan
▁lafiya
▁sɛbɛ
▁amitié
▁Oh
▁faute
aurait
▁dɔgɔkun
▁taar
hors
▁regarde
▁Accord
adresse
▁madon
yi
▁chèvres
▁wɔɔrɔ
/
▁ɲɛnajɛ
▁fɔli
▁bolow
▁noms
armée
Vous
aasa
▁sɔrɔli
▁nimatɔɔrɔ
▁bélier
▁pagne
▁hakɛw
▁finir
▁but
▁Zifu
▁tara
▁rire
▁Fura
▁boloko
▁kibaro
▁comprendre
sinna
▁tɔrɔ
▁kiiti
▁ɔridinatɛri
▁Kɔrɔɲɔgɔnma
tè
▁tombeau
▁sert
▁Maintenant
▁janto
▁vingt
▁nyo
▁venant
▁démons
▁six
▁maaya
▁restent
aura
▁acheter
▁lave
irent
▁ennemis
▁banan
▁marabouts
▁makɔnɔ
].
jiri
Qu
▁savait
▁Dɔ
▁kɔrɔfɔ
▁jeu
▁bama
kili
kolon
▁prie
▁date
▁connu
affaire
Tout
▁ceinture
▁termitière
▁lutte
Ce
▁gourde
▁jatigi
▁prêt
▁dɔgɔya
▁désir
▁enfin
▁dawula
▁vin
▁croire
▁brebis
▁présence
▁trouvèrent
▁Mariya
▁Yaya
▁direction
▁bonheur
▁dugaw
▁jɛkulu
▁sortirent
▁dalakuma
▁laissant
▁kule
▁Sugu
▁teriya
▁jambes
▁bannen
▁dɛrɛ
su
▁yala
tiennent
▁muɲu
▁kɔkan
▁histoire
▁go
▁dugulen
▁présenter
▁lakɔliden
mɔgɔ
▁fɛɛrɛw
▁forme
▁seuls
daɲɛ
Abraham
▁kabila
▁lance
▁9
▁sebagaya
▁hɛɛrɛ
autrui
ailleurs
mais
▁poitrine
▁construction
▁crapaud
▁synagogue
▁sèche
▁vide
kari
▁meilleure
masi
▁prépare
▁basigi
▁dɛbɛ
rait
▁cinquante
▁heureux
▁passèrent
▁soldats
▁teliya
▁Sɔnnikɛla
▁disi
▁boule
▁tɛmɛnnen
▁14
▁tôt
▁réussi
▁trompe
▁Soundiata
▁soins
▁demisɛnw
daga
▁annoncer
▁partage
ɔn
▁6.
▁tama
▁puissants
▁tla
▁Nama
▁rapport
▁30
▁ɲɔgɔnna
▁certain
▁52
▁Tie
▁pierres
▁faite
▁causer
sɛbɛn
nyama
▁mɔgɔya
▁ajouta
▁monta
▁kɔn
empêche
▁prise
▁kɔrɔn
▁lawuli
▁important
▁ɲa
▁magique
▁noble
▁tuguni
▁tɔnjɔn
▁ɲagali
▁neuf
▁rural
▁maloya
▁sow
▁kunben
▁Jamana
▁Bamakɔ
▁suffit
▁ɲin
▁Rien
▁Filipu
▁Sawuli
▁Sinon
▁dɔnbaga
▁mécréants
▁décidé
▁eh
▁retourner
▁faara
▁faux
▁voisins
▁accompli
▁Hɛ
▁komi
▁appartient
▁sebe
▁fama
▁rentrer
▁dlan
▁farin
▁poissons
air
arachide
avenir
▁calebasses
▁juge
âne
▁lasegin
kalo
arrêter
▁jala
importe
étant
▁cuisine
▁vieil
▁buffle
▁mariée
▁semblable
▁solution
▁ɲɛmɔgɔ
▁Sabu
▁Messager
▁chevaux
▁croyez
▁poussière
enfuit
▁Zide
▁Paki
▁conscience
▁quantité
▁genre
▁siratigɛ
▁deuxième
▁perdre
ais
▁laissez
▁élèves
▁sabatili
▁verbes
▁mangent
▁autorités
▁ramasser
▁tenait
▁sɔnnifɛn
▁ɲɛnama
min
▁fora
▁assise
▁livré
▁120
▁Soso
▁Fara
▁œil
▁devenus
viennent
▁Jiri
▁minni
▁guérir
▁prison
▁bɔtɔ
▁pluies
▁bangin
▁oui
us
ari
▁nɔrɔ
▁balan
juru
▁taille
▁Ho
▁départ
▁droits
▁Baara
M
▁rentra
arrive
▁tilen
occasion
Maître
midi
▁chanson
▁distance
▁domaine
▁Jara
▁maaw
▁kɔrɔw
▁20
▁kabi
▁oncle
▁frapper
▁Ciden
▁accepté
▁funun
fe
▁plan
▁donkili
▁mabɔ
▁trait
▁bɛrɛ
▁prier
▁génie
▁Judée
MIIRIZAN
▁prévenir
▁poche
▁rejoindre
▁nsiirinin
▁cadeaux
▁Satan
▁daamu
▁Fɔlɔ
▁Sunjata
▁batɛmu
▁devra
▁trouvaient
▁demeurer
▁labɛnnen
▁tard
▁Omniscient
▁combattre
▁ɲɛw
▁Hommes
▁sɛbɛnnikɛlaw
▁toucher
▁kumasen
▁fonio
▁Maninkaw
▁miiriya
▁minw
▁binni
▁humains
▁chasser
▁diyagoya
▁commencer
▁époque
▁mesures
▁faantanw
▁90
▁sagaw
▁aveugles
▁Awa
▁H
▁blancs
▁kuraw
▁W
▁Diani
▁mu
▁gɛlɛyaw
▁Kɛlɛ
▁chante
▁farati
▁malades
État
▁attrape
appel
▁fɔlɔw
▁malin
▁Philippe
Et
▁type
▁témoin
▁tire
▁13
▁kɔnɔn
inya
▁commença
▁pose
▁danye
▁remis
▁chargé
▁Namaramatou
▁salaire
▁Simbon
▁Misali
▁Guérison
▁prescrit
▁croix
▁Zozɛfu
▁kungolankolon
▁verrez
▁bɛnkansɛbɛn
▁kabakoyara
▁prenez
▁sɔgɔmada
▁cherchez
▁Sosso
▁boso
▁durant
▁55
▁saisit
▁49
▁48
▁danbe
▁47
▁têtes
▁mɔgɔkɔrɔw
▁salue
▁descendu
▁nɔnɔ
▁yɔrɔjan
▁jɔnya
▁autrement
▁Maman
▁crier
▁54
▁action
vec
▁dankan
▁18
▁laje
▁combi
▁100
▁groupes
▁exemples
▁kaana
▁poulets
▁ɲimi
▁Mi
▁46
▁coeurs
▁Jani
▁touché
▁pratique
▁or
▁donda
▁sauvé
sɔn
▁ee
▁ré
▁tɔɲɔ
▁prochain
▁pres
▁entré
époque
ange
▁barque
▁lampe
▁coépouse
▁preuve
▁jɔrɔ
Qui
▁saluer
▁lettre
ées
▁sorti
▁peren
▁incirconcis
▁Juma
▁numunke
▁César
▁vigne
Iburahima
▁Barnabé
▁Kangaba
▁Miséricordieux
▁Tièkoura
▁Aussitôt
▁coton
▁tabac
▁dernière
▁davantage
▁trente
▁entrèrent
▁Salat
▁nouveaux
djiné
▁payer
▁Feu
▁disputer
▁jahanama
▁Nul
▁guérit
▁coupé
▁repentir
▁77
▁donsoya
▁67
▁88
▁59
▁58
▁ressources
▁merci
▁Kaana
▁éviter
▁Com
▁kisili
▁différents
▁Wali
▁annonce
▁camarades
▁64
▁accueille
▁pratiques
yɔrɔw
▁unique
▁modenw
▁fagali
▁kunkan
▁63
▁66
▁80
▁103
▁17
mɛ
▁56
▁dimin
ère
jɛkulu
▁105
ier
▁bɛnnen
son
kurun
▁balimamuso
▁dili
▁tiɲɛni
ɲuman
▁tle
▁61
▁Do
▁Yaman
approcha
▁51
▁guide
▁kɛnyɛ
héritage
▁couché
▁fromager
▁entière
▁sentier
▁chemins
▁parabole
▁disciple
▁creuse
▁commune
▁voleur
▁fasa
▁soeur
▁lire
▁jamanaden
▁rempli
=
▁occasion
▁dagun
▁Moha
▁Burama
▁Namaramatu
▁python
▁vendre
▁sagajigi
▁Oumar
▁jumeaux
▁Kusu
▁création
▁soif
▁message
▁Zida
▁kosebe
▁poursuivit
▁hinɛbaga
▁62
▁baptême
▁buruju
▁paille
▁désormais
▁Jacques
▁dɔgɔkɛ
▁nourrir
▁cultiver
▁Ton
▁faamuyali
ayant
▁traitement
▁Dunan
▁injustes
▁tiens
▁jɛman
▁baloko
▁cacher
▁conduite
▁attends
▁kelece
▁tugunni
▁termes
▁tira
▁offrandes
▁voient
▁Jusqu
▁supporter
▁nafolotigi
▁envoie
▁trouvent
▁conditions
Les
▁aurez
vinrent
▁jeté
▁nations
▁7.
▁magannaw
baa
▁kɔrɔlen
▁sabali
▁vis
U
▁âge
bilen
▁ordonna
▁kunba
kuntigiw
▁ressemble
▁Kɔrɔ
aveugle
▁source
▁forow
dɔn
▁83
impôt
tient
▁dala
▁rends
emparée
▁Jinɛ
kene
action
▁donnen
êtes
▁Hakɛ
▁53
▁sɛbɛnna
habitude
▁rentre
▁siga
▁Bolo
▁dunbali
▁sabara
▁boubou
Mun
▁situation
▁pareille
▁Entre
faga
▁Dang
▁bone
▁téléphone
▁cria
▁confier
▁deviendra
▁liste
▁93
▁apporter
▁passage
yant
▁Ngantorini
▁royaume
▁multitude
▁Ɔrɔmu
▁wiyan
▁clairière
▁attention
▁lakika
▁frais
▁Biton
▁vendredi
▁voulons
▁voulez
▁Autrefois
▁magicien
▁Kourou
▁lakodɔn
▁secours
▁vivent
▁57
▁Judas
▁117
▁sidɔn
▁119
▁97
▁118
▁79
▁78
▁Segukɔrɔ
▁traverser
▁69
▁68
▁localités
▁108
▁89
▁109
▁87
▁107
▁Zaki
▁traiter
▁labato
▁Cieux
▁buguri
fura
▁lajaba
kalan
▁114
▁Eli
▁Viens
▁74
▁hier
▁kere
▁utiliser
aider
▁104
▁84
▁nali
▁agent
▁remplie
▁Koun
▁nobles
ire
▁bulu
▁mɛnna
▁170
kɔnɔ
▁portent
né
▁midi
▁110
▁sɛnɛkɛla
▁116
▁99
▁113
vos
▁73
▁ange
▁76
▁115
▁dunni
▁95
▁centre
▁kalanso
is
aurais
▁nɛn
▁112
▁106
▁86
▁arrivés
▁72
▁pousse
▁laadaw
▁Be
▁Sogo
▁senna
épreuve
▁verra
▁Pas
▁111
▁102
▁82
▁kɛla
▁91
▁71
▁appel
oreille
▁98
▁daba
▁dû
▁50
▁94
▁sauver
▁habit
▁101
instant
▁81
▁fiyen
▁Mari
▁prêtre
▁côtés
▁Re
▁interdit
▁accepte
▁clair
▁96
fɛ
▁furaw
▁cɛma
▁souffrir
▁tiimɛ
▁Marihéri
▁soixante
▁territoire
▁travaux
▁Pardonneur
▁monnaie
▁recevoir
▁Korè
▁protéger
▁diarrhée
▁dangereux
▁crucifié
▁fraîche
▁Douze
▁maïs
▁pieux
▁Benfa
▁connaissent
▁mettait
▁bientôt
▁étiez
▁dungew
▁Aucun
▁farafinna
▁dugufara
▁Malinkés
▁poyi
▁basigilen
▁déjeuner
▁Quelques
▁discours
▁pécheurs
▁denmisenw
▁Sidi
▁dispositions
▁locales
ût
▁bénédictions
▁Ô
▁périr
▁vêtements
▁composés
▁Kaba
▁dirai
▁attendre
▁janya
▁Al
▁sarati
▁bɛnbaw
▁certaine
▁héritage
▁tɔɲɔgɔn
▁130
▁barama
bugu
▁appelés
▁jufa
▁projet
▁togodala
▁mɔgɔtigi
minɛn
▁années
bo
▁dise
▁mama
D
▁sanfara
bin
bi
▁kɔrɔbɔ
▁forces
kɛnɛ
▁jamanaw
g
▁misiw
kɔlɔn
▁gun
ette
▁traite
▁92
▁Kan
▁couche
▁bɔyɔrɔ
▁Ye
▁taw
▁racine
▁génération
▁public
▁mouton
fara
f
baro
▁tombée
▁qualité
▁porc
▁mɛ
▁dalacɛ
▁dogolen
▁masiri
▁raisons
▁minɛna
▁mangea
▁jalen
▁Kele
▁soin
▁tuent
▁tô
Écriture
▁Joseph
▁Tounkara
▁engendra
▁ndoolen
▁beurre
▁Ouéta
accès
▁funtun
▁Kolima
▁murufɛ
▁préférée
▁sachant
▁Céninkiséma
▁complément
▁revient
▁montré
arabole
▁science
▁Oncle
▁waajuli
▁soigner
▁fuga
▁139
▁138
▁137
▁149
▁148
▁147
▁169
▁129
▁168
▁128
▁ɲɛnamaya
▁167
▁127
▁terikɛ
▁159
▁158
▁157
▁sachez
▁passait
▁segu
jinɛw
▁Jakuma
▁kɛlenw
▁donnez
▁ancêtres
▁174
▁134
▁Danga
▁tobili
▁144
▁farafin
▁164
ban
▁124
▁vision
▁sortie
▁idées
▁Cheik
▁154
▁Fan
▁pensées
do
▁tigɛra
certaines
▁275
▁trouvera
▁étrangers
▁messagers
▁kiraya
▁hakilila
Ma
▁173
▁133
▁176
▁136
▁140
▁cœurs
▁filɛli
mes
▁143
▁146
▁175
▁Cet
▁135
▁163
▁123
▁126
▁plats
▁172
▁160
▁145
▁132
▁156
▁153
▁142
▁165
▁125
▁sor
▁poules
▁122
tamment
▁derniers
▁155
▁171
▁revenu
▁131
▁batize
▁152
▁jin
▁141
▁teriw
▁kora
▁court
kolo
▁dure
▁préparé
▁161
▁19
dire
lankolon
▁cɛba
P
▁cakɛda
▁151
aurez
éducation
▁consomme
▁ladege
▁hɔrɔnya
▁kuncɛ
appartient
»!
▁composé
ntanya
▁concession
▁lahidu
▁promesse
▁fidèle
▁commandement
▁vêtement
▁Peul
▁digne
▁fitinin
▁pensée
▁Malheur
tte
▁ira
quels
▁vivra
▁guéri
▁Numu
▁ladɔnniya
▁Petit
▁Mariheri
▁gueule
▁lakɔlikaramɔgɔ
▁plupart
▁mâle
▁Keita
▁crâne
▁Mananju
▁Kiribulonba
▁revenir
▁lajɛrɛ
▁pourpre
▁Yɔrɔ
▁wooro
qui
▁ruse
▁r
▁kibaruya
▁levèrent
▁mɔnɛ
▁mortier
▁ɲɛfɛ
▁réussir
▁kɔseginna
▁Esprit
▁dilanni
▁nyimi
▁sable
agati
▁haricots
▁dépenses
▁degun
▁Hérode
▁nakun
ukumu
▁difficultés
▁âne
▁demandent
▁nɛgɛkɔrɔsigi
▁tueur
▁sages
▁delila
ine
▁put
▁disons
▁dɔlɔki
▁tege
▁listes
▁numun
▁Jɔn
▁habits
▁baganw
▁alisa
▁tomon
▁ɲɛtaa
▁remplir
▁segen
▁taabolow
▁kulo
▁lieux
▁185
▁tunun
▁vestibules
▁faudra
▁maman
▁matarafa
▁mauvaises
▁300
▁kolas
nɔgɔ
▁Kana
▁Farafin
▁sunogo
▁élevé
age
▁dedans
dans
▁cris
▁retrouver
▁échange
kɛlɛ
▁sigiɲɔgɔn
▁monté
▁Kɔ
▁formule
▁bɔli
▁sɛmɛ
étoffe
▁vain
bagatɔ
▁tués
alcool
▁craint
▁Arrivé
kɔ
▁dantigɛ
▁tenu
▁trahir
enseignement
Moi
▁hami
▁levé
▁apporté
▁croyant
▁forêt
▁culte
▁jeudi
auront
▁neni
▁famine
▁réponse
▁phrase
▁flèche
▁faible
▁Kalan
▁mandi
▁kumu
▁Nazarɛti
▁poussé
▁course
▁Kamalen
▁Faama
▁maraw
▁Alabatoso
▁ŋɔni
▁Wulu
▁Tɛn
oumba
▁Diarra
▁Karamogo
▁Maayazan
▁Sirablen
▁Sorozan
▁Tunkara
▁paillote
▁véritable
▁Parole
▁cheveux
▁Traoré
▁Joron
▁reconnaître
▁favorite
▁gauche
▁Tabou
▁Bitɔn
▁fitinɛ
▁demandèrent
▁virent
▁Mamari
▁Bougari
▁pire
▁kuntilenna
▁annonça
▁motif
▁fesses
▁gasi
▁descendance
▁Très
▁devenue
▁texte
▁197
▁179
▁178
▁177
▁189
▁188
▁187
▁donw
▁centaine
▁bonnet
▁dolo
▁yɛlɛla
▁kɛnɛyabaarakɛla
▁feront
▁fɛrɛ
▁actes
▁tenaient
▁kɛnɛyara
▁sɛgɛ
▁gelen
fini
▁siège
▁aînée
musow
▁184
▁shi
▁tilala
▁daraka
▁400
▁kiritigɛ
▁moutons
▁preuves
▁passent
▁semblables
▁baranin
▁kumaden
▁kasira
▁190
ga
▁commun
ren
▁180
▁183
▁186
▁195
▁jɛnsɛn
▁refuser
▁tɛmɛnen
▁Koro
▁vivants
▁sɔsɔli
▁allés
▁150
▁182
▁attraper
▁coucha
▁162
▁246
▁191
▁parla
▁121
▁danfara
▁tiɲɛna
juguw
▁nɛgɛn
tout
auras
▁gardes
▁181
use
▁65
▁bolofɛn
▁ge
espoir
▁rouges
▁45
oeuvre
fari
▁fiyɛn
▁lajɛya
▁Iy
▁toit
▁frappé
foro
▁Mes
offrande
▁coupa
▁frappe
esclave
ordre
▁han
ani
bere
▁kɛɲɛ
▁remplis
ntigui
▁pardonne
ale
▁daɲɛw
assemblée
Afrique
▁confié
état
bon
▁publique
▁saint
▁discussion
▁vieillard
▁Sage
▁patte
▁tilebin
▁pɛrɛn
▁kunatɔ
ugulu
▁maîtres
▁tagama
▁kɔmɔ
▁changer
▁bili
▁destin
▁mérite
▁Quelqu
▁silame
▁latɔmɔ
▁Antiyɔsi
▁Bugari
▁Jacob
▁Maseduwani
▁Nouvelle
▁Timote
▁Timothée
▁Tièfolo
▁engendré
▁représentant
▁ɛrɛzɛnforo
oseille
▁nɛɛma
▁remit
▁caïlcédrat
▁piété
▁Taabu
▁gazelle
▁déclara
▁posé
▁céréales
▁convient
▁reçoit
▁construire
▁Kitabu
▁Balla
▁kanhakɛ
▁Nagana
▁Seku
▁kɔnɔntɔn
▁cependant
▁déposer
▁complètement
▁éternellement
▁kuntaala
▁Sezari
nana
▁halaki
▁dèguè
▁2010
▁Kɔba
▁courir
▁larmes
▁étions
▁lionne
▁souris
▁warabilen
▁magɛrɛ
▁ɲɛfɔli
▁bolokoli
▁cidenya
▁Petite
▁environ
Anw
▁Ohon
▁temenna
▁éléments
▁trouverez
▁labɛnni
▁farine
▁salon
▁75
▁branches
▁suit
▁Bara
▁Prends
▁tɔnɔ
▁baarakɛla
▁parlent
▁donnait
interroger
▁Peuls
▁filila
!]
▁pourront
▁selle
Na
▁Afrique
▁récoltes
▁tenant
▁partager
▁222
▁kofe
▁prières
▁sanko
▁bamuso
▁souci
▁prétend
fila
entend
▁masala
▁bɔnna
▁retira
▁pourras
▁pousser
▁bilali
▁maris
▁mɔgɔba
naw
▁fɔcogo
▁kami
▁taalen
▁Gaf
▁risque
▁enlève
▁réunis
ie
Yahudiyaw
▁waral
▁serai
▁français
▁mi
▁gɛrɛl
ennemi
▁cultivé
fo
▁44
▁glorifier
limaniyabagaw
T
▁diyanye
▁Bla
approche
▁parles
installer
animal
amener
▁rois
Comment
▁causerie
▁pourvu
▁bambou
▁piège
▁ruine
▁mission
▁savon
▁couchée
latige
▁kelenya
▁8.
té
▁humaine
▁rassembla
▁sɛgɛsɛgɛ
▁comble
nature
▁égard
▁kaman
▁idée
▁gɛrɛ
▁juger
baara
▁souffle
▁courage
ɛlɛcɛkɛmɛkuntigi
▁Nyénizan
▁Pâque
▁Sanhédrin
▁Sigidankelen
▁choix
▁poids
▁vouloir
▁nyininga
▁onhon
▁Tènè
▁pauvreté
▁dɛgɛkurun
bire
▁brusquement
▁voudrais
▁Trois
▁dɔgɔmannin
▁Fabaly
▁garabasura
▁sitanɛ
▁suivent
▁sɔmiɲɛ
▁!»,
▁hɛrɛ
▁rapidement
▁rencontra
▁269
▁268
▁kununni
▁267
▁bulonda
▁Donc
▁229
▁228
▁227
▁279
▁nofe
▁278
▁239
▁277
▁238
▁237
▁249
▁248
▁247
▁217
▁cercle
▁219
▁218
▁subagamuso
▁208
▁209
▁207
▁259
▁258
▁257
▁sinamuso
▁binyɛ
▁paysans
▁lakɔliso
▁diversité
▁Roi
▁sinsan
▁mɛnnen
▁284
▁264
▁binye
▁chaînes
▁Tene
▁faisons
▁224
▁tɔn
▁314
▁274
▁page
▁234
▁194
▁musulmans
▁244
▁hakɛkɛlaw
▁214
▁ganna
acheter
Soyez
▁Tiri
▁obtenir
▁enseignants
sɔrɔ
▁254
▁limite
▁280
▁sonsan
▁devez
▁finira
▁setigiya
▁426
▁283
▁état
▁kinin
▁286
▁220
▁263
▁266
▁270
▁wulilen
▁230
▁260
▁223
▁226
▁fagara
▁345
▁285
▁273
▁240
▁233
▁souhait
▁276
▁210
▁265
▁236
▁proches
▁282
▁œuvres
▁Bo
▁appelée
▁243
▁tourne
▁225
▁216
▁Ci
▁213
▁315
▁waraba
▁262
▁épouses
▁235
▁secrets
▁245
▁272
▁Sans
▁215
▁prendra
▁232
san
▁203
▁sacs
▁281
▁242
▁heures
▁dakun
▁261
▁212
▁221
▁laminɛ
▁negen
segin
▁256
▁253
▁205
ninw
▁271
▁231
▁202
des
▁241
▁211
kɛla
▁bolokoden
▁kɔrɔmuso
ton
▁166
▁252
▁monte
ât
▁Subaga
▁dannatigi
origine
▁duguba
ir
tobaga
▁attrapé
▁senuya
grand
▁filanin
▁Z
▁maru
▁weele
▁Contr
▁251
▁konyo
entrer
▁70
▁soli
▁cin
génie
épervier
▁caché
▁rendra
Oui
entendre
envoie
▁jera
appui
Ah
▁mɛnni
▁bébé
▁catégorie
▁commerçant
▁baptisé
▁sème
▁compagnon
▁fauve
▁sommeil
offre
▁Jamakulu
▁Fariziyɛn
▁musokɔrɔba
RE
pe
▁porté
▁hadamadenya
▁attache
▁21
▁reconnu
▁enlevé
▁ɲagami
entends
▁Diouma
▁prépara
▁pêche
▁Daouda
▁jalousie
▁sɛmɛntiya
▁préférable
▁garijɛgɛ
▁cemance
▁troupeau
▁Kanute
▁fallait
▁niveau
▁dansagon
▁chemise
▁yeleme
▁Cemogo
▁concernant
▁woyan
▁nsirawo
▁Komo
▁mienne
▁Fen
▁kudayi
▁fuite
▁sorcellerie
▁cuire
▁CFA
▁indique
▁banginna
▁kɔrɔba
▁sonyali
▁voler
▁préparent
▁Daɲɛ
▁tubabukan
▁poison
▁baptiser
▁rendez
▁filenin
▁nommé
▁cherchent
▁mo
▁Karisa
▁Dion
NAAMU
arala
▁semé
orosun
▁vraie
▁Musa
▁Allons
qu
▁Kungo
▁Makan
▁tin
▁nulle
▁farinya
▁verras
▁bɛnba
▁brûler
▁gris
bulu
▁bayɛlɛma
▁dugubaw
▁tulon
▁204
▁demisɛn
▁délai
▁armées
▁services
▁empêcher
▁dépasse
▁agir
▁taamaɲɔgɔn
▁kofɔlen
▁déposa
▁kili
▁furancɛ
▁ɲɛmɔgɔw
▁ker
▁esprits
▁arrêté
▁accomplir
▁accord
▁divorce
▁250
▁amour
▁ɲɛni
▁193
▁maninka
▁sorcières
▁85
minɛ
▁sonna
▁quitta
▁ouvrir
▁Tel
▁duga
▁royale
▁façons
▁tena
▁mettra
▁Misi
tes
tèrent
yez
▁Tubabu
▁cen
mu
apporter
▁geren
bɛ
▁empêche
▁démon
▁196
▁ramasse
al
▁lakɔli
▁soso
▁sauta
avant
▁rencontrer
▁sabula
▁paie
▁belles
▁servi
▁dépend
empêcher
wale
▁quitter
ève
importance
intérêt
objet
▁pur
Mais
▁complète
▁ministère
agent
▁pardon
▁Ya
▁francolin
▁trône
ami
▁pré
▁malédiction
▁méchanceté
▁misɛn
▁rapide
▁favorable
▁cher
▁pilon
▁jarre
▁coupable
▁simple
▁grenier
▁diable
▁difficulté
▁Damas
▁gardien
▁activité
▁tlon
▁ɲɛkɔrɔ
Va
▁Silam
▁fiyɛ
▁froid
▁kunnatiyɛn
▁dɔgɔtɔrɔso
▁golo
▁199
▁wɔlɔ
▁tuubi
▁nkɔni
▁caractère
▁circoncire
▁condamnation
▁particulier
▁prétexte
▁Silanba
▁satisfaction
▁réalisation
▁samiyɛ
▁pewu
▁Cidenmasa
▁warijɛkisɛ
▁kɔrɔnfɛmara
▁kenyi
▁kankalamajan
▁tâche
▁rive
▁ŋanantan
▁cuisse
▁remettre
▁297
▁Nanaba
▁Banabagatɔ
▁@
▁339
▁429
▁338
▁439
▁428
▁jelikɛ
▁438
▁337
▁359
▁427
▁289
▁369
▁437
▁329
▁349
▁358
▁368
▁288
▁348
▁328
▁417
▁Mariyama
▁389
▁357
▁367
▁408
▁287
▁347
▁buranmuso
▁327
▁388
▁397
▁387
▁défense
▁419
▁379
▁407
▁409
▁418
▁378
▁377
▁317
▁Bakɔrɔ
▁319
▁318
▁doonin
▁infidèles
▁nsiirin
▁programme
▁terenw
▁298
▁398
▁mɔkɛ
▁308
▁309
▁307
▁dunfɛn
▁arrière
▁Subaa
▁autorité
▁armes
▁falenfalen
▁Nsan
▁399
▁299
▁dafila
▁auparavant
▁Vraiment
▁herbes
▁intérêt
▁Danba
▁gagner
▁tugulen
▁cornes
▁kununna
▁334
▁434
▁424
▁354
▁364
▁414
▁404
▁344
▁384
▁tusun
▁324
▁siens
▁294
▁374
▁biɲɛ
▁boit
▁394
▁oeuvre
▁argent
▁découvrir
▁plantes
▁Jigi
▁tigitigi
▁dukɛnɛ
▁dot
▁souffrances
▁simples
▁batofɛn
▁304
▁banaw
▁hee
▁continue
▁jɔra
▁290
▁sauvés
▁saura
▁330
▁420
▁430
▁410
▁yɛrɛkunw
▁350
▁320
▁340
▁293
▁390
▁380
▁296
▁333
▁423
▁433
▁336
▁436
▁363
▁323
▁343
▁295
▁416
▁403
▁383
▁356
▁366
▁370
▁346
▁326
▁laadi
▁jaasi
▁413
▁406
▁386
▁353
▁balimakɛw
▁360
▁393
▁Jir
▁310
▁440
▁396
▁373
▁gen
▁335
▁376
▁blanches
▁425
▁435
▁415
▁ligne
▁365
▁325
▁sumanw
▁395
▁385
▁316
▁198
▁292
▁332
▁nation
▁405
▁313
▁355
▁doigts
▁422
▁432
▁352
▁322
▁342
▁402
▁375
▁382
▁362
▁412
▁392
▁372
▁291
tigɛ
gɛlɛn
▁futur
▁442
▁jɛɲɔgɔn
▁justes
▁331
▁312
▁206
▁421
▁431
ô
▁411
▁321
▁josira
▁351
▁361
▁341
▁401
▁391
▁381
ille
sugu
▁303
suma
▁306
▁second
▁371
▁441
lakɔnɔnin
▁kɔlɔsili
▁311
▁êtres
▁vend
▁cɛn
▁305
»?
▁furusa
▁255
▁mène
è
tɔn
▁mako
▁302
▁yiri
▁terminé
▁Pren
▁ɲɛji
▁regarda
▁kɔnɔba
▁cun
▁fabriquer
mana
▁Furu
▁dutigi
▁kalama
▁Cɛw
▁confie
▁laisses
ments
▁duloki
écart
▁Syɛ
▁koori
angara
▁Kalo
▁veille
▁nanbara
▁301
▁Grande
arrête
▁siraw
▁24
▁fonction
urent
aucun
▁puiser
époux
utilisation
Vieux
Internet
▁nez
kuluw
▁centurion
▁prête
▁bataille
▁vaurien
▁écouter
▁conseil
▁classe
▁réflexion
minɛnw
▁protection
▁cavalier
▁bienfait
▁tradition
▁dɔɔni
▁souffrance
▁bénédiction
On
▁malien
▁yɛrɛyɛrɛ
▁chaud
▁féticheur
▁enseignant
▁nationale
attendre
▁pintade
▁Nk
▁soumis
▁familial
▁ɲɛmɔgɔya
▁fugula
hivernage
▁Kafaranawɔmu
▁Kobeedonna
▁Kobédonna
▁Macédoine
▁bosquet
▁croyons
▁promotion
▁Kanidio
▁Nguma
▁tabatière
▁Ngouma
▁minnifilen
▁dayele
▁morceaux
▁colline
▁pacte
▁gouverneur
▁kengeliya
▁plaine
miniminin
▁Niger
▁Fiyentɔ
▁Damba
▁Diakou
▁nɔminɛ
▁jamu
▁Foyi
▁Google
▁ɔnhɔn
▁Mogo
▁kabakoya
▁pɛrɛnna
▁Alla
▁Églises
▁Antioche
▁Chef
▁trahison
▁finnen
▁kɔɔri
▁yeleke
▁yafara
▁ancienne
▁Élie
▁tafo
▁comprends
▁Siri
▁LA
▁sage
▁louanges
▁eaux
▁tilalen
▁diront
▁chaude
▁enlever
▁dancɛ
▁maliens
▁conseils
▁folie
▁npan
▁baraji
▁race
▁projets
▁expliquer
▁karaba
▁amener
▁trouveras
▁yanni
▁Koba
▁sonya
.]
▁maminɛ
▁iras
▁descends
▁semeur
▁nyama
▁Tiémo
▁Tan
accepte
daw
▁laben
▁ailleurs
kuntigi
▁Wara
▁Ali
▁recherches
▁donon
▁minke
wari
▁dette
▁mont
▁fusils
▁lune
taama
▁bonye
▁lakanani
▁Ch
kojugu
▁resté
▁yele
▁Mara
▁192
▁établi
▁surunya
kise
▁tigiw
Nyama
koro
▁yera
▁lavé
▁casse
▁23
▁far
▁dafara
▁mɛnɛ
▁fanba
▁Bɔn
»;
▁Souba
ha
▁buran
ara
▁talen
épouser
intention
▁pleure
▁ouvert
▁prenne
▁bagama
autorité
amitié
Karamɔgɔ
arrivée
Dieu
Quand
Oh
▁chute
▁kunu
▁grillon
▁pirogue
▁comportement
sini
▁jugé
▁Juif
▁inutile
▁veuve
▁camarade
▁large
▁arrivera
▁soutien
▁ɲɔgɔnye
tige
▁soke
▁Zak
▁cekoroba
squels
▁farakolo
vrait
misɛnninw
▁waajibi
▁utile
▁hôte
▁Bolofara
▁Kali
▁engagement
▁Madu
▁forge
▁mɛɛn
▁Kɛnɛya
▁majamu
ɔbu
▁Batisi
▁Jooron
▁Maromaro
▁Samawouroussou
▁Soumankourou
▁fisamantiya
▁jardin
▁règne
▁yègè
▁ɛrɛzɛndɔlɔ
MAAYAZAN
▁ntomi
▁Gawo
▁Saul
▁balansan
▁promener
▁Togoso
▁commerce
▁farisogo
▁conversation
▁parfaitement
▁Cɛfɔlɔ
▁dignité
▁Nkilin
▁versets
▁Nanun
▁danger
▁Jonke
▁composition
▁vieillesse
▁compréhension
▁barikadali
▁procédé
▁jonke
baru
▁sosoli
▁levain
▁ŋala
▁timinandiya
▁dankari
▁dɛsɛra
▁obtenu
▁Conseil
▁portant
▁biire
▁Gao
▁Yisa
▁kɔngɔtɔ
▁valeur
▁ressemblent
▁sinye
▁relations
▁orphelins
▁discuter
▁9.
▁girinna
▁fortune
▁énorme
▁arrivait
▁pourraient
prestidigitateur
▁Silasi
▁emporta
▁meurs
▁lamaga
▁nuée
▁trouves
▁manche
▁pensent
ion
îmes
fan
▁dur
▁graines
▁compter
▁offrande
yɛlɛma
▁achète
▁nécessaires
▁œufs
▁importantes
▁retirer
▁Makɛ
▁bolonɔbila
▁manquer
▁faibles
▁Allez
▁baguette
▁oeil
▁sors
▁arrivent
▁internationale
▁réjoui
▁Fini
▁nature
▁liée
▁désire
▁plant
▁co
▁grosses
▁damadɔw
▁banabagatɔw
▁sariyaw
▁prises
▁change
▁443
▁taayɔrɔ
gré
▁tuera
▁jula
dɔnbaga
▁lakalan
▁Israël
▁portes
▁taatɔ
▁ncinin
▁consulte
▁dirigea
▁aille
amé
▁lamin
▁31
▁figure
▁500
▁Mah
▁ouvre
▁nécessaire
▁Éta
▁envoyés
kɔnɔnin
▁misiri
ombre
W
rotilu
▁Kanu
▁jɔnkɛ
▁musonin
▁toucha
▁Kama
▁Foro
ttant
▁appri
▁Sɔn
▁normal
par
▁lamɔ
▁vrais
honneur
▁atteindre
sɔngɔ
▁nakɔ
accomplir
ure
▁amène
▁quitte
De
▁jiriba
▁Peu
▁terres
▁somme
accueille
ancêtre
sexe
intelligence
Allez
▁souffre
fanga
▁vive
▁récipient
▁bil
tugu
▁impossible
▁trésor
▁plaie
▁papa
▁branche
▁alimentaire
enterrer
▁douleur
▁menteur
▁liberté
▁matière
▁terme
▁enseigner
▁synonyme
▁verbe
▁nombreuse
▁trace
▁membre
▁future
▁Maninka
▁tɔmɔ
▁rapporter
▁11.
▁bœuf
▁dugumɔgɔ
▁kanma
kɔrɔw
▁bada
▁apparu
▁bilasira
▁Sinbon
▁natte
▁disparu
▁dispute
▁kibaru
▁Cinzana
▁Capharnaüm
▁Kulibali
▁Lazari
▁langage
▁patience
▁répliqua
▁sumbala
▁bouillir
▁différence
▁Commission
▁mangèrent
▁prince
▁Saluez
▁Gafou
▁Césarée
▁piment
▁pénétrer
▁considère
▁vaillant
▁voyons
▁banco
▁vaincre
▁Sanburu
▁Comité
▁détruire
▁funteni
▁matériel
▁2014
▁venaient
▁boue
▁tribun
▁connaissez
▁X
▁perdra
▁meleke
▁sanba
▁citoyen
rafe
▁Dugutigi
juguya
▁segira
▁ŋunuma
▁nɔgɔlen
▁bɔɔsi
▁surunyana
▁aiguille
▁dulonnen
▁espèce
▁Puissant
▁voulut
▁promène
▁réaliser
▁tununna
▁participer
▁sudali
▁jɔdon
▁kerun
▁commet
▁liens
▁effort
▁selifana
maribayasa
▁denmisennin
▁Farikolo
▁Dɔn
▁serons
▁nyɔ
▁écoles
▁échapper
▁Gara
▁bolitigi
▁majɔ
lɛ
▁Wuli
▁veuves
▁particulière
▁partent
irai
▁ɲɛsinn
▁commerçants
▁crée
▁espérance
▁manifeste
▁baarakɛlaw
▁kankari
▁kunsigi
▁kise
Non
nze
▁Vieux
avec
kourou
▁senno
sama
▁ɲ
▁ferme
▁aimé
▁levant
▁avions
▁richesses
▁remèdes
▁permett
▁benna
▁27
▁baarakɛ
▁causes
▁raconta
koɲuman
ique
attraper
▁minen
▁lutter
▁koson
▁kodɔn
▁Iko
kɛlaw
▁tow
▁livrer
▁bosolisɛbɛ
▁bisigi
▁rassembler
▁berge
▁seegin
▁mûr
▁contena
▁graves
taa
▁bel
▁dɛmɛbaga
▁Bange
▁premières
jigin
ourou
▁Ban
▁grandi
▁issu
tendit
▁raconte
▁savaient
▁nafoloba
▁jine
▁nga
cakɛda
▁kaban
▁crie
kumaw
▁tels
wuda
approchèrent
▁cherchai
▁air
maw
▁dontɔ
misɛn
▁fula
avance
cœur
fille
▁béni
occuper
▁yɛlɛmana
▁10.
▁sɔrɔlen
▁retrouve
▁ver
▁lajɔ
sow
▁banginbaga
ance
nw
▁maakɔrɔ
▁tromper
▁placé
▁Dumuni
espérance
enlève
▁tombé
▁humain
allons
▁séparer
▁quitté
gris
▁maternel
▁calme
▁hache
▁glorifié
▁révélation
▁Mère
▁disposition
▁jɛnɛya
▁lamɛnni
▁houe
▁glorifi
▁vertu
engage
▁économique
▁mien
▁nanen
▁kɛtɔ
donnèrent
▁parent
▁importante
▁parfum
▁acquis
▁sugo
▁sɛgɛsɛgɛli
▁Nyam
▁sɔɔni
▁rende
▁firi
▁parc
▁œuf
▁Jeli
▁kɔfilɛ
▁Balenkho
▁Samawurusu
▁Sezare
▁Zezana
▁alamisa
▁conflit
▁corruption
▁mystère
▁patrie
▁vécu
▁victoire
▁musique
▁Mandé
▁prenait
▁consommation
▁disparaître
▁conviennent
▁retournèrent
▁suivirent
jɔ
▁chaussures
▁Pourtant
▁immédiatement
▁croisement
▁sécher
▁Cibaga
▁refusé
▁priait
▁Samu
▁lecture
▁reviennent
▁mɔgɔninfin
▁girinya
▁réunit
▁Walima
▁Ségoviens
▁vignerons
▁Buuru
▁kumaɲɔgɔnya
▁sinji
▁réalité
▁finalement
▁viendront
▁Iza
▁bonté
▁2008
▁africaines
aie
▁répondait
▁finman
▁hakɛkɛ
▁mépris
▁local
▁rang
▁miracles
▁bangenen
▁suivit
▁she
▁invités
▁Heureux
▁blé
▁dulɔkiba
▁Tulo
▁baga
▁ʃi
▁DDR
▁sankɔrɔta
▁vendu
▁naître
▁aliments
▁règles
▁kilisi
▁repos
▁22
▁braves
▁partons
voir
▁titre
▁majigin
▁assurer
▁Balima
▁tombent
▁rat
▁noce
▁limites
▁ruines
▁Damasi
▁vieillards
gote
▁intelligence
▁grandit
▁poussa
▁choisi
▁nugu
▁daji
▁oncles
▁jago
▁labanna
▁tɔgɔda
▁bolon
▁jɔda
▁mode
▁prêts
▁produire
▁libres
èn
▁Kɛr
▁jɔli
Frères
▁chacune
nɛ
▁huile
▁accepter
▁soda
offrir
gɛlɛya
▁chapitre
▁Tes
▁appelait
▁enfanté
▁fililen
▁nijo
koli
kɔlɔsi
baatɔ
▁faits
▁ramassa
▁kɛta
▁chercha
▁Bɛn
nni
▁sœurs
▁aimer
ayez
▁Mama
▁couvrir
▁ah
▁Sen
▁penser
▁danma
▁manteau
▁minan
▁Quoi
tila
écoute
▁pa
▁finisse
▁kɔlɔsibaga
▁13.
hu
▁port
▁reni
▁dilen
ser
▁gengenn
▁tufa
▁Wari
▁jogo
▁utilisé
▁tigɛlen
▁ha
umankuru
▁abord
▁fyɛ
▁passera
▁cuit
▁denmisen
▁jure
▁servira
aimé
silamɛw
▁acheté
ki
espace
Tiyɛn
Pierre
mort
oeil
walew
▁bolonɔ
▁camanba
▁bétail
▁poussin
▁défaut
▁traditionnelle
urons
▁casser
▁emporté
▁politique
npan
▁pars
▁locale
▁hakɛkɛla
▁dumu
ins
▁Silas
pres
▁annoncé
▁kolonkala
▁révélé
▁puisqu
▁dooni
▁nimisa
▁tortue
▁morceau
▁Nyenizan
▁Résurrection
▁Tankholela
▁douloureux
▁mémoire
▁Madou
▁retard
▁Tumumaninya
▁égaux
▁Khonte
▁sérieux
▁Eeeh
▁consolation
▁taamasenɲɛ
▁contient
▁trompette
▁craindre
▁kerefe
▁royauté
▁cauris
▁reine
▁descendirent
▁Ŋara
▁comprenez
▁haine
▁coulent
▁danni
▁production
▁chimiques
▁hypocrites
▁minuit
▁collectivité
▁surɔfana
▁sɛbɛkɔrɔ
▁Fatoumata
▁marchèrent
▁kegunya
▁réconciliation
▁keninge
▁mutuellement
▁barikantanya
▁npari
▁masake
▁continuèrent
▁attendant
▁tiimɛni
▁gwan
▁brisée
▁bilenman
▁Nyani
▁Anges
▁vol
▁sege
▁plumes
▁Tugu
▁siècles
▁grimper
▁kulela
▁facilement
▁ɲɛgɛn
▁image
▁réussite
▁dunankɛ
▁Grecs
▁Sori
▁silatunun
▁cassée
▁réfléchir
▁tɛnɛ
sɛrɛ
▁mener
▁ɲamakala
▁saisis
▁venez
▁descendants
▁Nana
▁ɲɛsigi
▁enseigne
Gare
▁salle
▁remets
▁saniyalen
▁apparaît
▁Jelimuso
▁teli
▁écrire
▁pièces
▁dɛnɛ
▁boisson
▁ressuscite
▁djinn
▁12.
▁goya
▁amer
▁absence
nɔ
▁soucis
▁catégories
▁jenbe
▁arrivant
▁gré
▁dignes
▁paraboles
▁jigiya
▁galo
ulu
▁kasa
▁serais
▁Baa
▁buru
▁pareils
korote
▁Banba
▁taamasyɛnw
▁lamine
sin
▁devoir
▁rendus
▁connaissances
▁soba
baya
ège
▁tere
hier
▁npogotigiw
▁sɛnɛfɛn
▁école
sogo
▁témoigne
waati
▁pouvai
▁nabiɲuman
▁margouillats
▁tacogo
▁répand
informations
ɲimi
▁lança
▁laja
▁maux
el
▁bolofara
▁bɔlɔn
▁bele
▁nson
▁37
▁mɔgɔsenu
▁cɛci
▁livres
▁dajira
▁munumunu
▁latige
▁nomme
▁telles
▁sujets
▁reven
▁toli
▁kafo
▁demandes
▁Voya
▁poil
▁présenta
gɛn
▁ɲɛdɔn
▁mogow
▁kunkurun
▁peul
▁tiré
▁Vo
Cɛ
▁reposer
▁jus
▁brûle
Muhammad
▁suko
▁cherch
comme
apprentissage
ɔrɔlen
antilope
aperçoit
yɛrɛ
alimentation
absence
Soundiata
envie
Voilà
entendent
togo
▁rassasié
▁dirige
▁fièvre
▁terrasse
expliquer
▁règle
▁conduit
▁linge
▁glaive
▁mobile
▁tribulation
▁mosquée
▁captif
▁pièce
▁sauvage
▁Sangatig
▁maudit
épic
▁sugandi
▁jinɛjugu
▁jambe
▁plu
▁rêve
nyefo
▁président
▁200
elefɔni
▁komini
▁tronc
▁ɲaga
▁pressé
▁prom
▁pénible
▁Hɔrɔn
Ee
▁convenable
▁weta
▁Kunnafoni
▁Tombouctou
▁Toumoumaninya
▁compagnie
▁lèvres
▁navire
▁néglige
▁Blangalama
▁moitié
▁sacoche
▁mpari
▁prononciation
FANKELEN
SOFI
▁jinamuso
SOROZAN
▁Sirablé
▁palais
▁Kɔrɛ
▁Fouta
▁Sambourou
▁terrible
▁enseignait
▁genju
▁silence
▁Soukho
▁Diable
▁exactement
▁disɔngɔkolon
▁lundi
▁cadre
▁cultivateur
▁Zuda
▁doucement
▁résoudre
▁Tumutu
▁voyait
▁rendirent
▁Tiga
▁relever
▁Dioron
▁horon
▁crédit
▁Hawa
▁wili
▁Ntura
▁pasteur
▁here
▁pareillement
▁fiancée
▁grossesse
▁Ɛ
▁situlu
▁haminanko
▁front
▁Mamadou
▁jɛɲɔgɔnya
▁ɲɔngiri
▁balance
▁recours
▁dosokɔrɔ
▁wewu
▁fardeau
▁Eux
▁Wulaaju
▁kɔrɔbɔli
▁suivait
▁perles
▁woyo
▁tanuni
▁regrette
▁demandez
▁waajibiya
▁publicains
▁juguyara
▁semer
▁Bonya
Faren
▁dansigi
▁lesquelles
▁élus
▁mɔgɔfaga
▁haute
▁kɔnɔko
▁masse
▁rue
▁croquer
▁bɔnsɔnw
▁balles
fɔlɔ
▁jɛlenya
▁kɔri
▁hakilimaw
▁rappelez
▁ordres
▁dispose
▁jamakuluba
▁jɔnmuso
▁arachides
▁Prenez
▁laiss
▁Wolo
▁vente
▁répondu
▁blon
▁restés
▁avance
▁tenez
▁instant
▁Warabilen
▁kɛwalew
▁II
▁inter
▁limaniyabaga
▁dulon
▁souhaite
▁silamɛ
▁espace
▁nɔgɔn
▁bolen
▁bonyana
▁téléphones
▁pourrai
▁couchés
fere
▁types
▁réserve
▁allant
▁solutions
▁ânes
▁synagogues
sun
ive
▁jaw
▁travaille
▁Fali
aiment
▁musakaw
▁mette
▁kanun
▁yaalata
▁hum
▁labin
▁Kolo
▁porta
▁kɔniya
▁parcour
▁multiplic
▁dingɛn
▁bâtons
▁répéta
ɛSI
▁welela
▁aurais
▁Yamana
▁sikisɛ
▁Dia
▁placer
▁mɔgɔkɔrɔba
ît
▁partis
▁Komin
▁constitue
▁dumɛ
connaissait
▁DE
▁filan
▁suppose
▁interrogea
▁cɛso
▁gɛlɛnw
▁Fais
fen
▁tues
▁sɛwa
ro
▁goni
▁nid
▁content
améliorer
union
▁baa
gan
kɔnɔna
▁envoy
▁touche
▁jusque
tumu
▁kɔji
▁ouvri
▁seconde
mara
vint
wuli
▁faden
▁moisson
▁gere
arc
▁é
▁dɔgɔtɔrɔ
▁cilen
▁!...
▁construit
▁recev
▁Jo
▁sauter
▁jiriw
▁hakilitigi
élève
▁refus
▁gardé
échange
▁baris
▁général
▁tilema
▁cultive
âme
nuya
▁planta
▁répandu
tant
cɛni
▁komo
orgueil
▁numuden
siraw
écouter
▁14.
aurai
écriture
ɔ
▁demi
agriculture
envoyer
adultère
image
obtenir
Ô
Viens
▁muet
haut
dedans
faire
▁attaché
naani
▁poursuit
tô
▁sye
▁balofɛn
espère
Bon
▁divinité
▁tranquille
▁ol
▁tissu
▁gâte
▁caste
▁responsabilité
▁prisonnier
▁semence
▁makun
▁brave
▁vautour
▁kɔlɔlɔ
▁commission
▁alijinɛ
▁amulette
▁sumalen
ose
▁Kidal
▁plante
▁réclame
▁armé
▁gâté
▁préfère
▁viendrai
▁protège
▁accepta
▁Adama
▁récit
▁passant
MUSO
▁bolokɔrɔ
▁Bakoro
▁Afiri
Tawureta
▁Agiripa
▁Coulibaly
▁Développement
▁Fɛsitusi
▁Satemaatosa
▁possession
▁sumadiyalan
▁système
▁yɛgɛyɛgɛ
▁Blaŋalama
▁nisɔngoya
▁wɔkulɔ
Miniminin
▁Sukho
▁Tarawele
▁Khonté
▁balikukalan
▁fumier
▁Sezɛri
▁tristesse
▁permission
▁Autrement
▁connaissons
▁Écritures
▁totalement
▁confondre
▁sarankanna
▁reprendre
▁flɔ
▁milliers
▁voulaient
▁boivent
▁comparer
▁numunkɛ
▁Lazare
▁révèle
▁culotte
▁jɔlɔkɔ
▁réussit
▁Afiriki
▁waleɲumandɔn
▁sinsinnen
▁parenté
▁ɲamɔgɔden
▁chanceux
▁dulɔki
▁transporter
▁lèpre
▁Prophètes
▁Appelle
▁fumée
▁furakɛcogo
▁fitini
▁Amiina
▁tununnen
▁dugutila
▁gili
▁kɔnɔma
▁chaleur
▁prodiges
▁ramassé
▁condiments
▁furake
▁utilise
▁Jonas
▁yelela
▁Kɔɲɔ
▁npalan
▁dabɔra
▁gars
▁sibiri
▁rassemblés
enfuir
▁fossé
▁kolosi
▁forogo
▁Isirayɛlidenw
▁reçoive
▁Diara
▁galop
▁demandait
▁Nations
▁fixé
▁filankafow
▁impôts
▁baana
▁idoles
▁rechercher
▁jɛnsɛnna
▁sauterelles
▁not
▁pourriez
▁cachent
▁jɛnna
▁tilenna
▁traîner
▁pourrez
▁profondeur
▁siramugu
▁cɛmɔgɔ
▁lava
▁entendez
▁territoriales
▁puissent
▁fuir
▁explique
▁kɛlɛtigi
▁Baptiste
▁ancêtre
▁tigera
▁jinɛjuguw
▁noire
▁tilara
épics
▁captifs
▁buranw
▁louche
▁noces
▁conforme
▁kɔnɔbara
▁Wu
▁expérience
▁chassa
▁ngoni
▁weleweledali
▁deriba
▁bangelen
▁adultère
▁féticheurs
▁envoyer
▁kalili
▁destiné
▁Gan
▁nationales
▁lancer
▁principe
▁kɛlɛli
▁weleli
▁jeûne
▁flèches
ali
dun
▁aiguise
▁porcs
▁animal
▁sebaa
▁offr
▁sortis
siri
▁16.
▁aiment
▁badaa
jɛkuluw
▁prévu
▁sèches
▁seben
▁tɔgɔma
▁Pari
▁kalakari
▁progr
sere
▁jirali
▁plaça
▁kantigi
▁prêche
ants
▁jeux
▁Jaa
▁32
.000
▁26
▁kabakurun
▁subaa
▁filɛlikɛla
▁gibiers
▁marque
▁dimina
▁laissent
expulser
▁pleins
▁continuer
▁creuser
Ta
▁Fere
ément
▁national
▁temena
▁embrass
▁Kɛlɛden
▁pro
▁Daga
▁dubaw
▁dɔrɔ
iri
▁jimin
AW
▁15.
ala
▁donnin
▁jank
▁barikama
▁nasira
▁lafasa
▁transport
▁hakilima
▁Tent
▁batizeli
▁nya
pas
▁warimisɛn
approchant
▁sotigi
▁jelen
yen
▁kusa
▁fulaw
▁woloden
▁duguma
▁38
▁39
autel
▁boloda
▁venues
▁Denw
▁ʃ
▁34
▁41
▁koron
dimi
▁lakari
▁offert
▁restera
tɔgɔ
▁Ga
boli
▁suda
gosi
▁Certaine
▁tumamina
▁ntɔn
▁lasigi
▁renonce
▁nisɔngɔ
▁munu
▁habite
▁Sud
ém
▁lamen
▁manifesté
▁Kis
▁leçon
▁pervers
▁tienne
Quel
▁dayɔrɔ
▁labalo
▁mélange
Ko
intermédiaire
▁ri
furu
eut
aventure
agalen
esclavage
Hum
Sois
▁lɔ
expérience
seleke
enlever
Allons
Fais
▁distingue
Hé
Pour
ensemble
▁congé
▁perd
dents
▁paralytique
▁tilenbaliya
Bien
▁quotidienne
rez
▁accomplis
▁fourmi
▁coron
▁scorpion
▁victime
▁docteur
▁musulman
▁pécheur
▁technique
▁événement
▁population
▁Pharisien
▁cɛla
▁blog
▁louange
▁sɛbɛnnikɛla
▁tigilamɔgɔ
▁Misira
▁haramu
▁briser
ses
▁Nye
▁jaga
▁séjour
jala
▁furumuso
▁jelik
▁suivante
▁Efɛzi
▁précipita
Toujours
▁Datetemenkola
▁Dogomandi
▁Dugumogotooro
▁Déjà
▁Gouvernement
▁Nazareth
▁Omnipotent
▁Sumanguru
▁Tankholéla
▁cuisinière
▁funérailles
▁légumes
▁mecreants
▁postérité
▁tamarinier
▁distinction
▁tilancɛ
udɛn
▁Fabirama
▁cɛmancɛ
▁satisfaire
▁Zacharie
▁prévention
peja
Enfer
▁Kanouté
Diélimousso
▁réputation
▁paresseux
▁Nyamantan
▁Maŋala
▁préparatifs
▁tribunal
▁bonsoir
▁mutukal
▁mininyan
▁dort
▁cachette
▁Jugement
▁provient
▁drap
juju
▁revinrent
▁bɔrɛ
▁fasojama
▁Tite
▁kangaba
▁kɔrɔsuruku
▁ouvriers
▁africains
▁apprennent
▁Maamari
▁dieu
▁crains
▁balabala
▁morike
▁cɔnkɔn
▁kolokolo
obscurité
▁écoutez
▁séparent
▁apportait
▁creusé
▁Fasokan
▁troncation
▁Isiray
▁porozɛ
▁kononton
▁lawasa
▁banfula
▁pleurs
▁nyun
▁Amen
▁bienvenue
▁fatɔya
▁commencement
▁simplement
▁exposé
▁dilancogo
▁jeunesse
▁sanfe
▁devins
▁Mamadu
▁nyangatan
▁vitamines
▁kabasen
▁mangez
▁Isaïe
▁prononcer
▁avantages
▁jinɛtɔ
▁liés
▁tɛmɛntɔ
▁seereyali
▁jatigila
▁montrent
▁objectif
▁sain
valent
▁autrefois
▁réunir
▁Kidali
▁épines
▁photos
▁22.
▁mafilɛ
▁retournant
▁kɔrɔti
▁endormis
▁po
▁balocogo
▁nuits
▁salutations
▁sumaya
▁Kuny
▁salua
▁mɔna
▁meure
▁cɛsirilen
▁jinemuso
▁tigilamɔgɔw
▁meurent
▁Enfin
▁laadala
▁rassasiés
▁tiɲɛtigiya
▁kalikan
▁kamalenkɔrɔ
arrêtèrent
▁redressa
▁dessous
▁pourrais
▁seleke
▁matières
▁traditions
▁crime
▁duntaw
▁kunbaba
▁gardiens
▁outres
▁ordre
▁baptisés
▁prendras
kɛmɛ
▁enseignement
▁Kelen
▁mɔri
▁tint
uguse
▁portée
▁danyew
▁fato
▁mangeras
▁oreille
▁individu
▁lajelen
▁jaba
▁voleurs
▁kɛnɛman
▁lettres
▁réunion
▁vil
▁tulonkɛ
▁Zona
▁importants
▁kosuma
▁kɔrɔtɔ
▁vides
▁kalanko
achète
▁dɔwɛrɛw
▁Baba
▁sɔrɔdasi
▁mensonges
▁querelles
▁mangerai
▁Dɔgɔ
▁cu
▁43
▁taamana
ɲɔgɔnw
▁accorde
▁recevra
▁36
▁lamara
▁35
▁goûter
attache
forobafɛn
▁42
▁capables
▁furakɛla
Ba
▁wulunin
▁21.
▁konoba
▁kɛnɛyako
▁kunnafoniw
▁résiste
▁fautes
▁étais
▁mɔden
▁fous
▁pos
kirikɛ
CHANT
▁33
▁informe
▁secoua
seri
▁fala
▁minɛni
▁dabɔ
▁rassemble
▁endroits
▁siyɔrɔ
portait
dumuni
▁restée
kasi
cueillir
ɛmɛ
▁denmusow
▁égal
▁efficace
▁avais
▁labaara
▁sudon
▁marigots
▁bina
▁dɔnnibaga
▁permettra
▁Dɔgɔk
▁fatɔ
▁permettr
▁kɔrɔla
▁19.
▁tigɛbaga
No
koroba
échanger
▁sogoma
▁installé
▁ser
mon
tile
▁Cour
bɛn
▁âmes
▁écrits
▁décide
able
▁Sini
▁dakan
▁faamaw
▁negejugu
▁bénis
dɔnbaliya
▁lahɔrɔma
▁mankutu
▁con
kelenna
▁tiges
▁Nsonsan
▁pleura
uru
▁respecte
▁dura
▁mɔɔnɔbɔ
▁Malo
▁diras
▁apporta
▁17.
appellent
▁contenu
▁mobili
▁remet
rions
▁20.
nba
épargne
accorde
misi
seli
▁40
▁transformer
▁ɲigin
▁peuples
rɔ
▁koba
▁présents
▁28
▁18.
lisa
▁vert
mago
▁tor
▁ɲɛgan
▁datu
▁magoɲɛ
▁réservé
▁kin
▁jogin
▁Masina
p
▁finiko
Rabbi
extérieur
▁prendrai
ET
▁spirituel
hydromel
▁gagne
Venez
▁ɲɛnasisi
lakodɔnnen
accouchement
▁confirm
odeur
Wuli
▁musokoroni
▁différent
▁2012
▁immense
▁nécessité
▁doctrine
▁démoniaque
▁trouble
▁liane
▁ɲɔgɔndan
▁exterminé
▁profond
▁adulte
▁capacité
▁joueur
▁cendre
▁Basa
▁wajibi
▁kunmabɔ
▁servante
▁Adam
▁somaa
▁tot
▁pouvoirs
▁bɔnsɔn
▁Sɛgɛ
▁Sɛnɛ
▁bangebaga
▁denmisɛnnin
▁découvert
▁jukoro
bagan
▁séché
▁belebeleba
▁acte
▁Salom
▁rejette
▁social
▁waaju
▁Farima
▁kologɛlɛya
▁masque
▁provoque
▁renforce
▁dakabana
▁renom
▁gourmand
CCLS
mangarano
▁Césaire
▁Dialakoro
▁Fatumata
▁Grâce
▁Tarawore
▁Thora
▁caméléon
▁keguya
▁propriété
▁ruisseaux
▁sanctuaire
▁stupeur
▁yatawarta
▁Considér
▁Festus
▁convives
▁rentrèrent
▁gundolayeli
▁locaux
▁Hesperian
▁Izaaki
▁soutenir
▁Sindian
▁Ntyi
tigre
▁plaire
obéissance
▁Tyr
▁guise
▁rocher
▁Sangafe
▁retiré
▁purification
▁fugakɛnɛ
▁Tigi
▁Mandiya
▁fɔkabɛn
▁barbe
▁joyeux
obtient
▁Titi
▁fulake
▁alalandiya
▁Prêtre
▁courageux
▁paume
▁rencontrèrent
▁Méma
▁ramener
▁renommée
▁repartit
▁kininbolo
▁process
▁silasa
▁Mema
▁voile
▁bakɔrɔnin
▁développer
▁cɛɲi
▁renforcement
▁marchait
▁socio
▁Boukar
▁gorge
▁Français
▁Bamoussobougou
▁hommage
▁Yeelen
▁Joli
▁madɛmɛɲɔgɔn
▁dugumisɛnw
▁conduire
▁sutura
▁réunirent
▁loue
▁magie
▁preux
▁jalakintan
▁busan
▁séduire
▁jamanakuntigi
▁jugez
▁compétences
emmenèrent
▁kununnen
▁double
▁kunbɛncogo
▁fadenya
▁marchant
▁dépasser
▁moustiques
▁talents
▁Samarie
▁ch
▁tombait
▁parvenir
▁oublié
▁pere
▁magen
garamu
▁karisa
▁nisɔndiyalen
▁partenaires
▁Kouny
▁konkon
▁Faites
▁informés
▁sueur
▁bɔrɔ
▁furula
▁hiji
▁passaient
▁unhun
▁ladilikan
▁Sere
▁boîte
▁Azi
▁artisans
▁mɔgɔfagalaw
▁assurance
▁fajiri
▁batoli
▁rappelle
▁Han
▁Maganna
auraient
▁kolonkolon
▁sortait
▁cayara
▁kɔnɔboli
▁oublier
▁sentiments
▁Soba
▁Niani
▁tuerai
▁Suiv
▁ferons
▁situe
▁outils
▁remercier
▁épis
▁kulola
▁geleya
▁inventaire
▁Tanu
▁traditionnels
▁piler
▁sagon
égard
▁Parm
▁Mɛlɛkɛ
▁samu
▁dafe
▁komɛn
▁wajibiya
▁jiginnen
▁Dannatigi
▁sandales
▁chantant
▁cogodi
▁furumusow
▁keleya
▁créer
▁sata
▁wasara
▁tɔɲɔnikɛla
▁CTS
▁baarakɛɲɔgɔn
▁irons
▁images
▁aimait
▁utilisés
▁zone
▁soirée
bilalen
▁karila
▁ajouter
▁Samarika
▁bor
▁diyalen
ordina
▁greniers
▁hakɛto
▁boliba
intégration
▁pile
▁espoir
Voyez
▁missions
▁veiller
▁commandements
▁générations
▁intérieur
▁feuille
tɛrɛ
likɛla
koliji
ations
▁kɔnɔnin
aille
▁falenna
▁botu
▁Es
▁juges
▁ɲɛn
▁magiques
▁fiyentɔw
isi
▁cɛya
falen
▁histoires
raignez
▁danfɛn
▁sɔnyɛlɛma
▁cultures
▁accomplie
dama
▁conform
▁tilennenw
▁jɔnnin
▁kɔnɔkow
▁consiste
▁diyanyeko
▁creusa
▁ladonni
▁méchants
▁pereperelatigɛ
▁binnen
▁régler
▁cikɛla
iye
▁Kaya
nden
exclama
▁saisir
▁banin
▁Madimas
liba
▁kabakow
▁tagalen
goni
▁koroba
▁demeura
▁fɛntigi
▁Zu
▁seins
adi
▁dɛmɛni
▁baarada
▁batu
sse
▁fɔta
▁donneras
ehe
▁minfɛn
▁prononce
▁furan
▁Co
▁koroti
▁sonsoro
▁Ɲɔ
▁grandir
▁buurukun
▁agit
▁accueilli
agir
▁éléphant
▁mangera
▁transforme
batigi
▁cité
▁Sɛ
▁manières
▁voul
▁kɔnɔgan
▁Denmisɛn
▁demeur
ssez
▁Dawu
▁ignore
▁verser
▁devienne
▁gagn
▁bɛlɛ
▁traverse
▁gakuru
▁ɲɛdon
▁outre
▁laissée
▁Makhana
▁Ré
▁reconnaisse
bɔlen
▁bɛka
▁gara
▁layɛlɛn
▁He
▁attacha
▁Appel
▁sépara
▁aval
▁Mod
uns
▁nɛ
abugu
▁naji
tɔw
oir
▁sé
▁déposé
ude
nnɛgɛ
▁recueilli
▁Tanba
▁sendon
▁signal
?...
▁roseau
▁cikɛ
car
biri
daɲɛw
K
attacher
engagement
▁É
arriver
œuf
ante
▁précis
kelaw
épouse
▁jurer
▁commande
jamana
▁fere
▁concert
camancɛ
idée
▁sɛlɛ
information
▁tourner
▁Nu
▁kunan
▁facilite
▁sortira
▁bateau
assistance
ière
▁taamaʃyɛn
économie
écureuil
annonce
▁tomo
affamé
aimait
dessous
Prenez
▁aimera
fétiches
jara
encore
Père
kafiriw
bonya
▁surpris
▁faranfasi
F
▁tourterelle
▁jukuna
▁butin
acceptent
▁retrouvé
▁talisman
apprendre
▁décision
▁solide
▁temple
▁kɔnkɔn
▁panthère
▁stérile
▁brigand
▁Per
▁sandale
▁dictionnaire
▁chaîne
▁fixée
ɛnnikɛla
▁cɛsamuso
▁fatigue
ter
▁remercie
▁lasiran
▁pure
▁impur
▁Kabi
▁déclaré
▁achevé
▁Kala
▁promis
▁Ti
▁releva
▁dusukasi
▁ex
▁wɔyɔ
▁dɔngɔnɔ
▁bûche
▁ardent
oublie
ouvoir
▁bulɔgu
▁kunnandi
BALEMA
▁obligatoire
▁FEMM
▁Paradis
▁Bouatou
▁Corps
▁Diompissiko
▁Jonpisiko
▁Kerfa
▁Mahamadu
▁Marthe
▁Nazôréen
▁brouet
▁chagrin
▁cimetière
▁contact
▁domicile
▁faucille
▁potasse
▁prudent
▁quatrième
▁sachiez
▁sariziye
▁tempête
▁veuvage
▁vérificateur
▁vêtu
▁wulee
▁golongari
▁oliwusun
▁suganti
▁zèle
▁Ɲuman
▁marchandise
▁violence
▁jahadi
▁protecteur
GORKI
SOMA
▁garagara
▁Ngano
▁Numunke
▁Faransi
▁verite
▁maaninfin
▁donnkɔnɔ
▁révéler
▁Manyouma
▁fourmilier
▁grabat
▁grotte
▁Fɔlɔfɔlɔ
Zangaba
▁korine
▁quartier
Audient
attente
▁misɛli
▁rassemblèrent
▁bufflesse
▁mouvement
▁rejoignit
▁bataki
▁Manyuma
▁Séré
▁Adresse
▁Madimassa
▁personnellement
▁Quatre
▁nkɛlɛn
▁bobo
▁Kɔnɛ
▁Agrippa
▁cailloux
▁Bilakoro
▁clairement
▁Dannaya
▁juré
▁figues
▁latilen
▁possédait
▁poursuivre
▁ɔwɔ
▁nyesuma
▁Touré
▁nanbarama
▁ɲɔgɔndɛmɛ
▁revoir
▁Dɔwɛrɛ
▁Ntori
▁nuque
▁sinenin
▁Kante
▁études
▁expressions
▁soja
▁dufon
▁Dionk
▁dususuma
▁entièrement
▁dégâts
▁dépassé
▁wilila
▁excellent
▁furabulu
▁Dɔnko
▁latɔmɔnen
▁perte
▁matarafali
▁sɛgɛnnen
▁mettez
▁suffixe
kayi
▁priez
▁malienne
▁viv
▁cɛncɛn
▁Baro
▁position
▁fililatilennan
▁firiya
▁participant
▁sommet
▁Salomon
▁gannen
▁26.
▁dɛmɛnni
▁battirent
▁travaillent
▁pensez
▁étonnés
▁dérivés
▁arrogant
▁retrouvent
▁auteurs
▁tellement
▁lajɛyal
▁tentation
▁sortaient
▁madeli
▁lakanako
▁traduit
▁montèrent
▁combattu
▁meurtre
▁habitudes
▁kɛwale
▁incantations
▁sunɔgɔra
▁1000
▁Boliko
▁jeninen
▁flɛ
▁angoisse
▁Jinɛjugu
▁écoute
▁nisongo
▁parlez
▁parlant
▁falatɔw
▁faantanya
▁lɛw
▁plombs
▁sigiyoro
▁perdant
▁kunfɔlɔ
▁proclamé
▁épreuves
▁CSA
▁Éphèse
▁sentir
▁syɔ
▁taya
▁Gɛrɛsikaw
▁Jamais
▁imposer
▁vaines
▁Siran
Taa
▁cɛtigɛ
▁Munna
▁existent
▁appartienne
▁numan
▁serments
éhé
▁possèdent
▁fabriqué
▁ajouté
▁observer
▁mangeait
▁Fale
▁dépos
▁louer
▁montant
▁konobara
▁Kabako
▁mord
wara
▁bénit
▁techniques
▁balema
▁Fama
▁crut
▁accompagner
▁Sara
aperçut
▁passions
ouest
▁boda
▁arracher
▁kenye
▁défauts
▁dugawu
▁yoronin
▁surprise
▁kamalennin
▁houes
▁ɲangili
▁approche
▁odeur
▁poursuite
▁essayer
▁gardent
▁shuya
▁bienfaits
▁denmisɛnya
▁usage
▁jege
▁tourna
▁Baji
▁assemblée
▁bɔtuma
▁retire
▁couvre
▁jitɔ
▁2015
▁Kale
▁ɲinɛna
▁créée
▁balimamusow
▁passée
▁perenw
▁fidèles
▁savais
▁sere
▁Hakilima
▁kalanyɔrɔ
entendant
▁nagasi
sur
▁ɲani
▁moque
ning
▁ɲɔgɔnnaw
▁wulada
▁conduis
▁yelemana
▁mene
▁kecogo
servent
baaw
▁labanw
▁mani
▁renverse
▁koɲɛw
yɛlɛn
▁soumet
▁sirako
▁sut
koma
▁welelen
ɲini
▁sigini
▁maîtrise
imé
▁dɛn
▁juguba
jɔli
▁pens
rons
▁cultivée
▁brisa
▁servit
▁chants
▁fi
rurent
▁torche
▁pria
▁harponn
uma
▁rase
ident
moriw
▁lier
▁juma
Ouest
tan
▁sɔ
▁maralen
riez
▁kilo
oro
▁subir
nbe
▁Regarde
▁contrôle
▁coupes
ɲinina
▁attend
▁Bob
▁kaari
▁rappel
▁finye
▁tambours
▁Vie
ɛrɛ
munu
▁payé
▁baden
▁sauve
▁cɛjugu
▁2009
kutu
▁tunga
▁descendra
▁mettrai
▁Kolon
▁oh
▁Warab
▁furufɛn
▁tas
dogo
▁suya
▁Te
▁fixe
▁Zakari
▁dugutaa
raient
filen
▁trous
▁aie
fili
rie
▁gari
ad
▁ɲɛɲini
▁ravi
▁Me
▁montra
▁passés
vers
R
emuru
▁déclare
▁relève
)...
kɔnɔmɔgɔw
▁cassa
▁kɔsa
▁trahi
▁bugun
tou
▁Fer
▁29.
▁kodɔnbali
nyini
venir
▁fifa
▁bond
▁comprend
▁aliment
▁Tɔ
échapper
appuy
▁Nafolo
▁sokɔnɔ
mment
yɛn
exemple
▁sijan
▁tuez
▁oublie
▁réjouir
▁kunnawolo
yɛli
▁jigiɲɛ
ɲɔgɔnya
ite
▁kɛbaga
aman
▁aidé
▁changea
▁déchir
É
toro
humanité
▁ŋuna
accompl
plus
▁rompi
▁versé
▁restes
▁galab
sigilan
girin
bonda
environnement
achat
▁sisi
RSS
▁régn
CTS
latigɛ
Prends
▁Boloko
enseigner
Ɔwɔ
Maman
▁bienvenu
usage
Dis
▁sacré
▁baiser
écrire
▁lourd
Elle
appeler
▁communautaire
▁terrain
▁vainqueur
avis
▁démarche
▁campagne
▁cordonnier
▁communication
▁gain
▁coin
nafolo
▁céleste
▁scandale
▁voisin
▁bolomafara
▁siginindengafe
▁crotte
▁gɛlɛ
▁véridique
hôte
▁balle
▁injuste
▁justifié
▁28.
▁emporte
▁salutation
▁enverra
▁porteur
Jɔnni
itiri
wɛrɛ
▁destinée
▁bolokɔni
sobon
beau
▁jenin
baato
▁commis
gidala
▁bɛnkɛ
▁précipite
▁musoman
aviez
▁neuv
▁munyu
locogo
▁kiritigɛla
▁prospère
▁manden
▁baisse
▁muruti
▁tiyɛnni
▁relâche
▁Apôtres
▁Betani
▁Béthanie
▁Conclusion
▁Diarisso
▁Diasson
▁Jardin
▁Jinɛmori
▁Joppé
▁Koulibali
▁Première
▁Soumangourou
▁Sɔsɔli
▁basakoron
▁bibliothèque
▁chapelet
▁gɛɲɛ
▁hasard
▁minéraux
▁multiples
▁mécréance
▁protéines
▁sorgho
▁souffert
▁vérandah
▁Ananiyasi
▁graisse
▁latrines
▁mininian
▁samedi
▁Dougoumogotoro
▁Mahamadou
▁Merci
▁Rome
▁cɛjuguyara
▁refuge
▁Caroline
▁bâtard
▁dommage
▁évènement
▁sɔgɔsɔgɔ
▁chauffage
▁furuboloma
▁Veille
▁prédication
▁Fond
IÈ
▁lamaloya
▁promenade
▁Kissan
▁chameau
▁punition
▁taamashyen
▁menaça
▁Miiri
▁rosée
▁conjugal
▁genoux
▁jumasu
▁ministre
▁Sagesse
▁parlons
▁absolu
Islam
▁hein
▁Babougou
▁Furakɛli
▁reins
▁creux
▁suivaient
▁communiquer
▁Konè
▁surface
▁logeur
▁échoué
▁nyegen
▁remettra
▁sufaraba
▁shyene
▁prié
▁Libaabanun
éteindre
os
▁terun
▁logo
▁Togodala
▁réfléchit
écrièrent
▁furunafolo
▁tabale
▁PRE
▁proposition
▁endurants
▁sacrifier
▁bugo
▁ouvertement
▁craignent
▁vérifier
▁procurer
réhabilitation
▁nalonman
▁Waajibi
▁succès
▁blankɔ
▁pèlerinage
▁Djinn
▁introduit
▁nyugu
▁retraite
▁Barabasi
▁probablement
▁changé
▁griller
▁suro
▁kogoji
▁nɛnkun
▁matinée
▁salée
▁karamogo
▁Moriba
▁considérable
▁geste
▁beauté
▁kɔlɔsilijɛkulu
▁faraɲɔgɔnkan
▁termites
▁fondement
▁Nɔgɔ
binyé
▁Cɛkura
▁blessé
▁septième
▁murutili
▁vendeurs
▁sûrement
étendre
▁warijɛ
▁saisirent
▁nuage
▁poutre
▁cɛɛnɛ
▁Wula
▁yelenkun
▁enseigné
aimés
▁constance
▁perclus
▁sɔnniyɔrɔ
▁vendent
▁baganmara
▁Fula
▁Kariba
▁obéissez
▁rassemblent
▁farinyana
▁guidés
▁traversée
▁Komakhan
▁bagi
▁Jɔnkoloninkaw
▁murutilenw
▁disposé
▁ɲɛnabɔli
▁kɔrɔtɔlen
▁couverture
▁directement
▁descendent
▁imiter
▁braises
▁kakalaya
▁pratiquer
▁descendait
▁kunaya
▁entouré
▁antibiotiques
▁mɔsɔnni
▁kɔseginni
▁dunu
wolo
▁relâcher
▁colas
▁cessé
▁tubercules
▁lourde
▁nommée
▁mangeaient
▁graine
▁kisɛya
ben
▁jinɛnin
▁institution
▁Sidɔn
▁durable
▁dɔgɔda
▁Juman
▁kununko
▁couronne
▁limaniyalenw
▁koromuso
▁kɛlɛbolokuntigi
▁Kunba
▁sinin
▁proclamer
▁baarakɛminɛnw
▁bololankolon
▁antidote
▁sortez
▁chantent
▁arc
▁sɛgɛnna
▁refusent
▁waleɲuman
▁gains
▁Nege
▁confectionne
▁rencontrent
▁véridiques
▁nsonsan
▁impurs
▁soudaine
▁hauteur
▁Vers
interrogent
▁joueurs
▁installés
tigɛlen
▁affamé
▁denmisɛnninw
▁honneur
▁fourmis
▁docteurs
lodɛsɛ
▁toux
▁créa
▁Gako
▁kunmabɔli
udu
▁maudits
▁sauvages
▁jiribolo
▁Paris
▁cekorobaw
▁poussins
▁latigɛra
▁traditionnelles
▁siti
indication
▁maternels
▁tombés
▁Bani
KU
▁libertés
▁bâtir
▁fermes
▁furuko
▁furulen
▁restant
▁fâche
▁songe
▁kalankuma
arachides
▁dar
▁cavaliers
▁carré
aies
▁Sidon
▁noires
anyo
▁lanogo
▁Sanu
éloigner
▁filimako
▁Kitaka
▁Seme
▁auraient
▁quinz
▁jiginni
▁bira
▁promesses
▁soforo
▁revenus
▁sexe
▁publics
▁racines
▁ɲinɛn
likɛlaw
▁ombre
▁sɛrɛ
▁donnerait
▁ŋaniyaɲuman
▁Nafolotigi
▁choisir
▁npogotiginin
th
▁aimés
▁livrés
▁keneya
étendit
▁mourrai
inba
bɔli
bulonba
▁reviendra
▁23.
▁filets
approcher
▁25.
▁enlev
▁visages
▁27.
▁transmettre
▁sauvée
écraser
emporte
▁cherches
▁hyènes
indiquer
▁Koli
▁réponds
attend
per
▁Ha
▁sɔrɔcogo
dala
▁kanɲɛ
po
▁toro
▁gansanw
mayɔrɔ
▁ajoute
▁Marit
ɔkɔ
▁woloba
mine
▁viennes
▁kɔnɔmɔgɔw
▁denmisɛnni
▁sense
▁estime
▁24.
woro
emplacement
▁maana
▁Denmuso
▁jaman
▁nanan
▁danyɔrɔ
nommé
aimer
▁sarama
éclater
▁Sago
muru
▁Kɔgɔ
▁ɲɛci
▁taasira
accomplissent
nyoon
iques
▁dépense
▁Bagan
oyons
sions
▁fagabaga
▁sibolo
ungoba
▁Ken
kɔrɔba
▁kɛnɛba
mɛnɛ
igidamɔgɔw
▁trouv
▁asseoir
auteur
bindon
ignore
nyɛ
▁royal
▁travaill
▁labo
▁bilala
▁feras
▁rencontré
▁dépose
▁Coupe
▁tombes
▁confi
▁trouvés
ununkun
nce
V
▁débarrasser
yere
▁mett
nci
diya
▁ɲumankɛ
kɔn
▁dugumas
▁crise
▁bogo
ɲɔ
▁garda
issent
ard
dian
▁Dɔnni
▁denkɛw
ɛgɛ
inyɛ
LES
numun
ɲumankɛlaw
▁sungurunba
▁préoccupe
▁Go
▁couvert
▁appartena
▁syɛden
ɔsi
▁amené
ssons
▁joint
▁dwa
▁chanté
ables
baaraw
aise
Bɔ
▁lasabati
▁nɔɔni
achève
kono
▁franchi
▁tɔgɔla
ouvrirent
▁tiɲɛnen
ES
aisselle
▁lamɛnbaga
erreur
▁Maison
wulu
▁ɛrɛzɛn
acacia
association
▁choisis
▁étendu
▁Foroba
▁sɔrɔko
▁wɔrɔ
▁suspendu
▁propose
essaie
▁reconnais
petit
ɛgɛlen
uriez
▁génér
▁Samari
▁article
▁Kiri
▁brise
bulon
ème
▁épouser
▁Ép
nyuan
▁dumunikɛ
▁Juru
▁arrêter
installe
ignorance
dangereuse
honore
▁El
Suis
▁absent
égarement
Laisse
injustice
atteindre
essayer
Hérode
battit
Hakili
œuvre
Papa
allez
cinq
quand
quatre
Zan
devant
Makɛ
parents
allait
▁solitaire
▁prophétie
▁buisson
▁respecté
▁divisé
▁parfait
yaala
▁endormi
Toi
▁fabriqua
saraka
▁étalon
▁obligé
▁poing
▁répudie
▁marie
▁déterminant
joli
▁troupe
▁hangar
▁tariku
habits
▁final
▁scolaire
▁vôtre
▁npogo
▁territoriale
▁haricot
▁corne
▁fagot
▁namaden
▁homonyme
▁étoile
▁guéris
▁instrument
▁découverte
▁Fɛɛrɛ
▁batiri
▁col
▁sagaden
▁kuran
▁tɔgɔlamɔgɔ
▁Ju
▁kungosogo
▁serment
▁numa
▁ouverte
▁baarakɛminɛn
▁réduir
▁pois
▁compri
▁établie
▁yɛrɛtɔɲɔ
▁apprend
outre
▁twama
▁extraordinaire
▁confiée
▁dungɔ
▁prive
▁apparten
▁Syrie
▁remise
oués
▁sainte
▁manamana
▁détruis
enleva
dɛmɛbaga
▁alikama
▁pénètre
installa
aladies
▁personnel
▁syɛw
▁tɔɲɔni
▁arrache
▁Npogotigi
▁soonadon
▁gwa
▁chapeau
▁nperi
hospitalité
Éducation
▁Alɛsandiri
▁Connaisseur
▁Elizabɛti
▁Félix
▁Goumbanko
▁Guerre
▁Guinée
▁Jourdain
▁Nangoloko
▁Nkolondo
▁Poudre
▁Sadducéens
▁Sadɔkisi
▁Satématossa
▁Sécurité
▁Thessalonique
▁Travélé
▁Zébédée
▁acquiesça
▁barokononin
▁crépuscule
▁dajukɔrɔkuma
▁dépecer
▁dîner
▁football
▁fɔnkɔɲɔgɔnya
▁géhenne
▁internationaux
▁justification
▁logiciel
▁manioc
▁personnalité
▁quelconque
▁rônier
▁safunɛ
▁semblant
▁tonnerre
▁tumulte
▁écrasé
parricide
▁Gɛlɛya
▁Jigizan
▁Kelennako
▁Zapɔn
▁croissance
▁crème
▁modèle
▁nyamogosanba
▁recharge
▁enterré
▁moudre
▁préparèrent
▁Farota
BENBA
Hosanna
MENKORO
TENEMAN
▁reconnaissance
▁Felisi
▁romain
▁Nganu
▁Yakuba
▁Fiyɛn
▁Zope
▁plénitude
▁bɔɲɔgɔnko
▁Dinye
▁Togontan
▁Kanja
▁balansando
▁danfarafan
▁hernie
▁bunteni
▁dressa
▁comprirent
▁toutefois
▁brisure
▁bonjour
▁dorokoli
▁télévision
▁surveiller
▁pardonné
▁coopération
▁sankanso
▁demandons
▁rompre
▁Kanté
▁Dugukolo
▁Yɛlɛma
▁suivez
▁paraître
▁sixième
▁tinsan
▁dite
▁Sachez
▁yuguyugu
nfaran
▁moindre
▁considération
▁III
▁ɲɛngoya
▁Enfants
▁loger
▁Unies
▁nɔnabila
▁Fankelen
▁Sonsannin
▁mɛri
Ananie
quit
▁convenablement
▁genda
▁Barabbas
▁héros
▁rémission
▁Parfaitement
▁fuseau
▁mabalima
▁segesege
▁Bamusobugu
▁lancé
▁réellement
▁Sunu
▁nourrit
▁catastrophe
▁gage
▁Magdala
▁cherchons
▁glorifie
▁tilegan
▁goyara
▁sebaaya
▁nyenyini
étonnement
▁sinbon
▁kunnatiyɛnni
▁dénommé
▁méchante
▁naaninan
▁Makasi
▁farafinfura
▁bagages
▁précautions
▁Kalaba
▁Mise
▁rentrait
▁musokoroba
▁fonctionne
▁batizera
▁commençait
▁marqués
ages
▁Yera
▁taamasen
▁fɛrɛkɛnɛ
▁gwanna
▁dépensent
▁médecine
▁nyenaje
▁remplirent
▁timiya
▁perdue
▁gestion
▁incapable
▁faasi
irikiri
▁sokɔnɔmɔgɔw
▁nord
▁criaient
▁nuguma
▁Lafili
▁clefs
▁financiers
▁Nafa
▁marcha
▁saalo
▁Béni
▁tigakisɛ
▁destination
▁Lewi
▁parfois
▁clé
▁attendait
▁Labɛn
▁sinsi
▁nkalontigɛla
▁répondra
FOLO
ebede
▁laafulen
▁maramafɛnw
▁ɲɛnafin
▁conteste
▁association
▁dumini
golo
▁planter
▁galama
▁Lièvre
▁Rends
▁boutiques
▁fleurs
▁Jate
▁nansaraw
▁Maru
▁épargné
exprimer
▁aimez
▁habitent
▁haie
▁yɛrɛminɛ
▁batteries
▁apparut
▁méthodes
▁dogons
▁gardez
▁sogosara
▁nisɔndiyara
▁tooro
▁jalakili
▁égren
ekete
▁pêcheurs
▁combattants
▁changements
▁aillent
▁yɛgɛ
▁entendaient
éleva
▁Foli
▁épaules
▁captives
▁Sɛnɛkɛla
▁dantigɛlen
▁deniers
▁remplacer
▁vir
▁postpositions
▁résultats
▁raser
▁entreprises
▁étroite
▁criant
▁gagné
▁attach
▁diminen
▁entendait
▁pique
▁rendait
▁saniyali
▁fagots
▁scolaires
▁vôtres
▁wulaba
▁initiatives
▁Sanji
▁respecter
▁bouse
▁acteurs
▁dunanya
▁saintes
▁coursier
▁Banin
▁lakanabagaw
▁aurions
▁Kari
▁accompagnée
▁Donko
▁bangebagaw
▁capacités
▁spirituels
▁exterminés
▁blali
▁bɛnbaliya
nnikɛlaw
▁Jaba
▁travaillé
▁marques
▁siraba
▁prêter
▁poron
▁tribulations
▁Jugu
▁souche
▁julaw
dɛsɛ
▁sosi
▁parcs
▁Nte
ugu
alités
▁menna
▁jijalen
▁minɛcogo
▁menteurs
▁bœufs
▁sortent
▁réservée
▁kalannen
▁engagements
tala
▁nɛrɛ
▁jaune
▁kunkɔrɔ
aro
▁teme
▁Tilennen
▁Saga
▁alimentation
▁nyenama
▁jinɛkuntigi
▁pièges
▁jarabi
▁jinf
lanw
▁gronde
▁tumajan
▁discussions
▁repartir
▁tɔnba
▁humaines
▁parvient
▁Yan
▁toits
▁fadenw
oyi
▁donnés
▁Dɔnnikɛla
▁interdits
▁Kunun
▁2013
▁rentres
étenteur
▁importance
▁Denmisɛnnin
▁descendus
dogoke
▁poses
▁Faso
▁bugɔli
▁buffles
▁banni
▁jineden
nogo
écroule
▁jir
kunba
▁connus
▁moto
lier
▁lasɔmi
▁kuluw
▁yankan
kuranɛ
▁lis
pères
▁Tilebin
▁meilleurs
▁continu
lakira
▁Denba
▁emporter
kini
▁kojugukɛla
dɔ
mɔ
attendent
faa
▁Sel
▁Kenye
▁konona
▁suivants
▁autrui
▁km
mafɛn
▁cadavres
▁ntama
vions
ttes
▁misimuso
▁versa
▁permette
▁gɛlɛyaba
▁File
▁dɔgɔmuso
▁écri
▁préserve
▁offerte
▁saine
▁dutigiw
▁Mako
▁écraser
▁abandonné
▁tantan
olo
▁appui
▁données
▁goniya
saba
▁singes
▁nɔfɛmɔgɔ
▁réuni
tla
▁propriétaires
▁kuna
lèrent
▁moments
▁nyan
▁dépouille
nge
ssent
▁dumunifɛn
▁dévore
▁Manden
▁penses
▁kumajugu
▁kɔli
taient
rompt
▁sorts
ître
▁vivai
▁Sor
▁posséd
gu
▁bande
▁suffira
▁dalan
innu
▁sene
▁invite
▁canaris
▁selles
▁marchés
▁bafin
mettaient
▁hakilinata
fyɛ
▁karamɔgɔw
▁koli
ɔnnibaga
▁causé
▁rapporte
▁mesurer
Re
seraient
▁Mamad
▁tien
▁fix
▁attrapa
▁suscite
fɔli
▁folen
▁condamné
ira
▁rendue
sɛbɛnw
▁heureuse
▁kɛlɛla
cew
▁avisé
▁traversa
▁arracha
yali
mènent
▁considéré
▁dir
ssé
▁fixa
▁décid
▁ɲumanba
▁dunya
▁consommé
▁yɛ
▁tulow
yanfan
▁proposé
▁fitiri
Dit
▁libérer
▁sien
▁célébr
ssaient
garan
▁dɔnnikɛla
considérés
ettre
lonnen
▁mada
▁cacha
▁recouvr
vez
▁arraché
donna
▁fyɛn
rɛ
abandonner
▁ɲɔn
▁pi
▁miirina
▁goût
▁guerres
▁feerefɛn
expression
▁parvenu
▁30.
sɛbɛ
▁décida
▁ordonne
utiliser
sans
▁arriv
▁rentré
lakaw
▁Tɛmɛ
nege
nyanfan
▁Saba
rien
▁lions
▁presse
▁brûlé
▁mourant
apprête
▁gese
▁Nɔnɔ
minan
empar
▁lafa
▁livra
enir
▁tourné
venant
▁Ŋ
▁prénom
▁mɔgɔkɔrɔ
makan
▁Muru
▁Komi
layi
dɔgɔ
tait
▁désigne
ulo
▁parcouru
Min
▁Lamin
feere
▁Jalakɔrɔ
abondance
▁Fari
▁Zo
argile
▁Nkalon
▁Suman
▁purifié
▁assiste
applique
digi
éclat
atu
installation
Asie
▁insensé
▁grimp
kunda
intéressé
administration
MOC
élevage
accepta
Femme
ordinateur
organisation
▁attacher
Baptiste
Amadou
Ça
rappelez
Sankolo
bugɔ
atteint
neuf
alors
▁nomm
aussi
joona
▁convenu
coups
▁réveiller
▁bracelet
▁lézard
▁réponde
▁violent
Nama
Baba
▁possédé
▁laisserai
kuncɛ
sege
▁2006
▁Nationale
▁triste
▁billet
▁métier
▁Question
amène
▁supérieure
▁palabre
▁rapporteur
▁pioche
▁dessein
▁secoureur
▁pila
▁voiture
▁avancée
▁traditionnel
▁photo
▁ressource
▁bura
▁couleur
▁conseille
▁Diyɛn
▁élu
kilisi
▁éclat
ajouter
▁opinion
interrogea
arrivent
insu
Cet
▁Jɛgɛ
▁souffr
▁kɔlɔ
▁for
▁apôtre
dage
▁appren
▁cal
▁bololabaara
▁naît
▁aiguisé
▁limaniyalen
▁jiriden
ncèrent
▁posée
ouverture
▁expliqué
▁précède
▁lien
▁remue
▁aladɔnbali
▁Korɛnti
▁yɛrɛmajigin
▁hâte
▁sérieuse
ɛn
nciya
▁boonsi
▁Turumankhe
▁souligné
Achaïe
Israel
excès
▁Afirikidisidi
▁Béelzéboul
▁Bɛlizebuli
▁Caïphe
▁Diabadié
▁Dionkounda
▁Hinɛ
▁Jéricho
▁MINISIMA
▁Menaka
▁Messie
▁Nanyima
▁Oliviers
▁bienfaisants
▁couvercle
▁décortique
▁fonhon
▁frayeur
▁gifle
▁instruit
▁mourront
▁procès
▁prospérité
▁spectacle
▁sénégali
▁testicule
▁vœu
▁électrique
▁Balansan
▁cantonnement
▁salive
▁patron
BALEMAKE
▁Sagajigi
▁coiffure
▁embarrassé
▁Pharaon
▁Ŋolo
▁clôture
▁dorome
▁collective
matricide
▁Zakat
▁Kandia
▁fierté
▁pikiri
▁Coran
korongo
▁sainteté
▁femelle
▁déterminer
▁syefan
▁sèns
▁recoudre
▁prescription
▁tombèrent
▁douceur
▁proie
▁jɛɛmu
▁Jonkunda
▁voulais
▁Sounou
▁Jaason
▁Nanbara
▁hɛn
▁gɔfɛrɛnaman
▁croyaient
▁daɲɛgana
▁foori
▁conquérant
▁genou
▁testament
▁combattent
▁gratuitement
▁syɛfan
▁Bɔgɔ
▁ninakili
▁Sonkuntige
▁banbannen
▁prononça
▁sied
▁nourrissent
▁Dɔlɔ
▁niveaux
▁Nalonman
▁Zone
▁myɛ
▁toilette
▁jadis
accomplissement
▁Weta
▁ɲɔgosi
▁gouvernement
▁craignaient
▁wuyi
▁fabrication
▁Ciel
NYE
▁Andere
▁servait
▁jaati
▁métal
▁Table
▁lionceau
▁savants
▁Sonfaga
▁Guides
▁invocations
▁affligés
▁kiiriko
▁Toma
▁contribution
▁prononcé
▁constater
▁excepté
▁volontiers
sieur
▁paradis
▁dabakala
▁collé
▁fonɛnɛ
▁nkalontigiya
▁pleurez
▁suuli
▁kankalama
▁yɛrɛjira
▁Kunatɔ
▁Iran
▁fɔlɔfɔlɔ
▁avertir
▁longueur
▁haramuya
▁yɛrɛmahɔrɔn
▁IV
▁comprennent
▁Ameriki
▁ɲagaminen
▁veau
koura
▁wɔsi
▁pensait
▁labeur
▁engendre
▁descendant
▁réveillé
▁masina
▁weelecogo
▁tourments
▁woshi
▁Nɔrɔ
▁agricoles
▁reconnaissants
▁hake
▁ennuis
▁Nariba
▁contrainte
▁saratikan
▁détaillé
▁aidez
▁2007
▁rejeté
▁gonflé
▁Kofɔ
▁Kɔrɔnɛyi
▁MINUSMA
▁restaient
▁DEDEY
▁Angola
▁demandaient
▁fagalen
▁remonter
▁Sous
▁divers
▁Obama
▁dinge
▁Mori
▁danmana
▁raconté
▁achet
▁intelligents
▁convoitises
▁ordinateur
▁chantaient
▁élever
▁pleinement
affrontèrent
▁accueil
▁nziirin
▁accouchée
▁doux
▁koɲɛnabɔla
▁ɲɛsuma
▁piqûres
▁telin
▁ramasseur
▁dawulama
▁roc
▁VI
▁barikantanw
▁Sanni
▁Demain
▁aspect
▁nyine
▁déterminés
▁Halisa
▁instructions
▁occupé
▁nyinan
▁seme
▁papi
▁poussent
▁Suta
▁boulettes
▁froide
▁écoutent
▁rit
▁coururent
▁jujɔn
▁rendaient
▁plainte
▁initié
▁Essaye
▁germer
▁disɔngɔ
▁nôtres
▁talons
▁mɔni
▁fasokan
▁pratiquent
▁gosira
▁dɔnba
▁Kurun
▁regardant
▁gɛnni
▁sortant
maya
▁partagent
▁étrangères
▁blessures
▁dade
▁exploits
▁Sɛbɛnnikɛla
▁ferma
▁Foliw
▁kita
▁kungosogow
▁tɔgɔlamɔgɔw
▁segintɔ
alité
▁Dites
▁résolu
▁tombera
▁jamasenu
▁npɛtɛ
▁ressuscitera
▁tenter
▁masurunyamɔgɔ
▁cɛsamusow
▁extraordinaires
▁instruments
▁mouillé
jakabɔ
▁niama
▁dogonin
▁présentèrent
▁déchirer
▁égale
▁Sijama
▁Isaac
▁julaba
▁kongo
▁fourni
▁kisira
▁masaso
▁brigands
▁kɛlɛyɔrɔ
▁Donne
▁deviens
▁tenté
▁avaler
▁Femme
▁espoirs
▁servantes
▁rendrai
▁Région
▁adultes
Jean
▁fréquente
▁témoigner
▁contents
▁rêves
bou
▁mɔgɔjuguw
▁dɔlɔmin
▁Gɛrɛsika
▁Mar
▁Seli
▁revêtir
▁Boliba
▁lebu
▁tontigi
▁élève
▁29
▁mɔgɔsɛbɛ
▁gêne
▁banakunbɛn
▁douleurs
▁disputes
▁magɛn
anus
▁hôtes
▁tri
▁Bila
▁seginni
basi
▁faciliter
▁bololanɛg
▁mandiw
▁intérêts
▁Sandig
▁Dantigɛ
▁kɔnɔnasu
▁bébés
▁farali
▁mure
ânes
hee
▁Kumaden
rofo
▁fɔbaga
dé
tɔmɔnna
▁ɲininen
▁baroda
▁woloma
▁Mo
cation
im
▁utilisation
▁Taama
▁occasions
exécution
ifs
▁dumun
accompagnent
unité
▁coépouses
▁muɲun
▁jouera
▁sida
ja
▁cohabit
▁couvr
▁gana
▁Ol
▁manifester
arrêtent
▁formes
▁Nto
▁tabaga
▁Hakilina
▁gourdes
▁jugera
eront
▁pagnes
▁évite
ve
dressant
▁traité
frères
bu
▁maire
▁guérie
▁Laisse
▁acide
▁partant
▁fâcha
▁suguyaw
▁contribuer
▁colle
▁Sow
▁cili
▁dresse
▁nalon
▁banajugu
ran
tendant
kuntigiya
▁retrouv
tournent
▁bangebaa
G
▁demeures
forment
▁dogoyɔrɔ
kɔrɔbaw
res
▁aînés
▁jatebɔ
▁tɛgɛw
▁expliqua
▁kanna
▁senuw
▁coqs
▁enfante
▁supporte
▁dikisɛ
jalan
duction
▁Cogo
▁réconcilie
restidigitateurs
▁tourmente
été
▁préoccup
am
dimitɔ
fɛɛrɛ
▁cadets
▁sema
▁Sala
000
▁vents
yaji
▁gada
▁fasoden
▁Sera
▁conclu
amis
donni
▁lataa
▁tendre
▁installée
sikan
▁Denmisɛnw
▁jɛgɛn
▁Rappel
ʃ
fana
▁vivante
mafɛnw
lataa
▁mod
▁abandonne
▁soucie
bore
▁sûre
▁camp
▁terminée
▁Évangile
▁contes
▁jamaba
dit
tigui
▁doncogo
▁baya
ɲɛnatigɛ
banko
▁nton
sɔ
▁boirai
▁auxquel
assurer
▁nɔbɔ
▁conf
buru
▁essay
▁Pa
▁worodugu
▁sufɛ
iscours
▁issue
▁pénétra
▁suppli
nsaban
ble
▁minin
▁Laban
▁failli
lo
▁donko
urs
faamawariminɛnaw
venait
▁Fi
▁waatiw
▁debe
malenya
";
èm
▁boira
▁kabin
▁gagna
vant
▁allumé
▁ordonné
▁privé
lalen
▁voué
▁50.
lanin
▁Bois
▁Ɲa
kira
▁kɛlɛkɛ
▁défini
▁lafaamuya
▁senti
ormément
▁Nsira
▁parlera
▁he
libaga
nbaw
▁siso
bɛɛ
▁tresse
▁Sin
fali
filɛ
▁45.
▁désobéi
▁Man
▁éprouvé
UR
▁baissa
▁75.
ura
▁paye
nkɔrɔ
▁pet
dɔɔnin
09
▁ose
▁tlal
▁nomma
emporter
▁ladiya
étude
▁réduit
▁collecte
labila
▁flen
▁201
▁profite
▁international
hoto
kafa
Ka
▁trans
Du
▁40.
▁insulte
▁fermé
Par
prenaient
appela
▁ladilan
ar
Ange
▁Yann
jelen
nasira
▁intégr
occupe
▁pilan
sonsan
apaise
▁patient
▁kungokɔnɔ
ue
▁tuèrent
Homme
18
▁emprunt
▁funu
malheur
aires
▁feereli
▁tiɲɛtigi
▁Mal
San
▁Kanou
▁purifier
anburu
▁jaka
▁Nany
▁assassin
▁fantan
oignon
existe
▁ressusciter
▁filankafo
jɔyɔrɔ
embarrasse
▁accompagné
imagine
Com
▁active
avare
échec
Égypte
▁65.
▁Marc
exerce
équipement
Isaac
▁Kulu
épi
Adam
informer
DDR
Musa
diinɛ
temps
natigɛ
Muso
Jésus
komo
▁brisé
▁médecin
▁jele
▁fatigué
▁intérimaire
▁phacochère
▁industriel
▁cigogne
▁exploit
annoncer
Ayi
▁malhonnête
▁blasphème
auto
▁planté
aimée
▁précepte
▁persécution
▁désordre
▁sud
▁sourd
Fils
▁importé
▁postposition
▁résultat
▁fenw
▁moderne
▁blessure
▁localité
▁culturel
▁cube
▁folle
▁poursuivi
ah
likalo
▁tarata
▁romp
yafa
Cela
▁profonde
dunun
rgne
▁guérison
▁nanbaratɔ
▁barr
▁sociale
▁hakililatigɛ
restation
▁kɔnɔta
▁étrangère
ivraie
▁dɔnta
▁concerné
▁échouer
▁repris
▁gele
▁recouvert
▁intéressant
▁dormi
▁servant
▁accouché
▁wew
▁contribu
▁datugul
agisse
▁brûla
▁débat
▁Plus
ƆRƆ
▁épi
▁effective
▁Lors
▁douce
ouroum
▁nécessite
ankhé
bertin
▁cloche
▁Feere
▁sɛngɛrɛn
chiffre
envola
exclusion
igname
instruire
olondiougoudyiri
▁Bethsaïde
▁Biramou
▁Bougondyi
▁Catégorie
▁Corinthe
▁Céphas
▁Cɛninkisɛma
▁Datétémenkola
▁Dondolisa
▁Déclaration
▁Finalement
▁Gɛningɛ
▁Isikariyɔti
▁Kayifu
▁Kɔlɔnjugujiri
▁Mauvais
▁Sangafé
▁Sangamaru
▁Simeyɔn
▁Sénoufo
▁Thomas
▁Yaasongo
▁Zeriko
▁avril
▁bravoure
▁cenyagaji
▁chevelure
▁citronnier
▁conséquent
▁croyiez
▁dépôt
▁fabricant
▁gɔngɔn
▁jeleninkala
▁miséreux
▁permanent
▁pillard
▁pommade
▁prouver
▁quatorz
▁recueille
▁ruraux
▁réparation
▁solidarité
▁stupéfaits
▁tisserand
▁yurukuyuruku
▁Bendougou
▁Gunbankɔ
▁apparaissent
▁bagarre
▁bakuurufan
▁détacha
▁rigueur
▁saheli
▁complice
▁Biramu
▁Claire
▁safuna
MAMURU
OBANA
hygiène
▁résidence
▁créature
▁destruction
▁jouissance
▁moururent
▁contenir
▁rétribution
alphabétisation
▁Japon
▁Yuba
▁baaradegekalan
▁précieux
▁kasanke
▁croître
▁goitre
▁planète
SABU
▁fourreau
▁Djiné
▁malnutrition
▁terrorisme
▁tegekoji
▁rivalité
▁rougeole
FAKO
▁jinɛkamalen
▁kasolamɔgɔ
ƐRI
▁Kɛrɛti
▁Diankhé
▁Médiation
▁jikankurun
▁munyuku
injuri
▁Président
▁produisit
▁Chasse
▁Plateforme
▁dispersent
▁Dusumango
▁Mariki
▁kɔnyɔ
▁verront
▁balafon
Voleu
▁correctement
accroupir
▁Dikɔ
▁kabakoyalen
▁mîn
▁gaspill
▁Jabanden
▁kɔnɔnamiiri
▁Banjugu
▁Yila
▁connaissaient
▁Lanogola
bakilu
▁avilissant
▁jamiina
▁Delili
▁walaka
▁représentation
▁Nyankh
▁marchaient
YUBA
▁jinɛmori
▁généralement
▁ruèrent
▁héritier
▁labaaracogo
aisance
▁loje
interrogeaient
▁séance
▁immolée
▁kɛlɛkɛdenw
▁gardait
▁dloki
▁ɲɔtigɛ
▁routes
▁initiative
▁excréments
▁mansaren
▁bâtit
▁alentours
▁Nizɛri
▁diverses
▁mécanisme
▁dixième
▁antérieurs
▁vacances
▁gabugu
▁infections
▁vitesse
▁incroyable
▁daɲɛsugu
▁supportez
rascible
▁Musokɔrɔnin
▁tremblement
▁vida
▁France
▁extrême
▁Jankhe
▁obstacle
▁ɲɛgɛnɛ
edeba
▁Bulon
▁yaafa
▁sannifeere
▁abondante
▁disputez
▁Woro
▁tɔmɔnen
▁remuer
▁humeur
▁dafɛdugu
▁veillée
▁CAN
▁sauté
▁donsoyayɔrɔ
empare
▁sennɔ
▁kɔseginnen
accompagner
▁grince
▁complot
▁Mugu
▁Bolokɔni
▁sugora
▁invoquent
adopti
▁désigné
▁hakilintanw
▁Sonsan
▁tɔgɔladon
▁discuté
▁gamin
▁kiiri
▁monture
▁tuubira
llions
▁tranchant
▁fillette
▁Silisi
▁kunkanko
▁chevreau
▁Janfa
▁extrémités
▁déchets
▁vélos
▁oeufs
▁variétés
▁prétendent
▁pénètrent
▁binkannikɛla
▁nɔrɔnna
▁biche
▁kegun
▁observe
▁peaux
▁Minɛn
▁payi
ène
▁Diya
▁mɛɛnna
▁affixe
▁choisit
▁Bonjour
▁Marifa
woloma
▁ntugannin
▁nœuds
▁engagés
▁limɔgɔ
▁sɔɔnin
▁fununna
▁Levez
▁nyaga
▁ignorer
▁ressuscitent
▁bobara
▁rage
Ces
▁Yamanna
▁Namis
▁dugumɛnɛ
▁Hyène
▁naturelles
▁Diouman
▁élimination
▁traversé
▁édition
▁égarés
▁tewu
▁Mariba
▁banban
▁Jeliba
▁bergers
▁Apollos
▁Cana
▁sunaa
▁kundama
iguan
empara
▁duguje
▁médicales
▁notables
▁percer
▁Salut
▁occupe
▁misaliya
▁demeurez
▁sigosi
▁places
▁ɲɔkala
▁pratiqué
▁acacias
▁explications
▁waraw
▁effets
▁bɔnɛnen
existence
▁aumônes
vingts
▁sigiyɔrɔma
▁dafɛ
kede
▁saluent
▁chantait
▁dirons
▁kunnafoniko
▁honnêtes
IZAN
▁grandeur
▁recommandations
he
▁nsoro
▁jurukisɛ
▁Laissez
▁kakala
▁guérisseur
▁inquiète
▁prient
▁Dɛmɛbaga
▁retourné
▁vérifi
▁posent
▁Waleya
▁Pikiri
▁modernes
▁haramulen
▁Mamou
▁tubabufura
▁piste
▁idiot
▁ordures
▁tɛrɛbɔ
▁principale
battre
▁fereke
▁guérisons
▁taamatɔ
▁comporte
boo
▁ordinateurs
▁ɲɛnafilɛ
▁Hun
inscription
▁sanfɛla
▁roje
kɔnɔw
▁twa
▁étoiles
▁jiridenw
▁kɔrɔsen
▁répudier
▁paire
▁nsonsannin
▁doyi
▁sombre
▁nsaban
▁amant
▁Jamanatigi
▁organe
▁MOC
▁élevage
▁forobabaara
▁gɛnnikɛla
▁divine
▁cendres
▁apprenant
fu
▁dilannen
▁traîne
▁Duguba
▁Annonce
▁souille
▁mangeant
▁injustice
▁purifie
▁sy
▁Kɔn
▁considérée
▁chassé
▁mépriser
▁prisonniers
▁muets
▁vautours
▁attachés
▁gâter
▁yelenna
▁peuls
▁rues
teaux
udali
▁recouvre
▁fɛnsɛn
nfɛ
▁examiner
▁verse
▁lenge
▁sirannen
▁Tla
▁wariko
▁tonso
Restez
▁ɲɛjugu
▁miens
▁suspendue
▁mɔnni
▁ŋunan
▁alimentaires
▁magannamuso
ɔkɛ
▁2500
▁korow
▁lakodɔnnen
▁entrez
▁soutiens
▁recommande
▁souillé
ru
▁fondé
▁Sois
▁sigicogo
atteignit
ttèrent
▁levez
▁alijinɛw
▁banakisɛ
▁badenw
▁fondée
▁coupent
▁retrouvée
▁manink
▁musakako
▁dannamɔgɔ
▁tugunin
▁falo
▁datuma
▁mangerait
▁kalansen
▁risques
fɔla
▁dotée
augmenter
▁phrases
▁laissons
▁Boko
osquée
▁fus
▁mangoro
▁échanges
▁bolota
▁époux
▁cuite
▁exhorte
▁geseda
amélior
▁Vi
▁buguda
▁Natan
issait
▁informer
▁tumu
▁entrés
▁placée
▁épervier
▁tigɛli
nyin
nye
▁dés
mba
▁fusa
▁domaines
▁dɛgun
▁insulter
▁Tulu
▁proposer
▁misiden
▁kulunin
ères
▁farafara
▁jolie
▁kɔnɔfɛnw
▁tribu
▁désirs
▁soeurs
▁Hea
▁installer
▁subi
▁nés
▁buts
▁sc
▁tolen
▁Arrivée
▁pr
▁écrite
▁approcha
▁kunda
▁kɛnɛkan
▁foie
▁étend
▁munna
▁joua
arinya
ciaux
▁sina
avions
funya
▁prochaine
▁SET
▁jɛkuluw
▁guider
▁donyɔrɔ
▁kobilen
▁hɛɛrɛko
ènè
▁animé
▁difficiles
▁dettes
▁ɲɛmada
▁ali
▁entrera
▁nako
▁mansarin
▁nabara
établir
kɛyɔrɔ
rai
euses
▁dɔnbagaw
▁serpents
▁foolo
ibo
B
▁setuma
aimes
▁Sod
▁renie
▁syɛba
arriverait
▁nourri
▁murs
▁foliw
▁("
tôt
▁Monte
▁Celles
nɛgɛ
▁forts
▁maraka
Kula
▁obéi
▁dansent
fɛmɔgɔw
▁déli
connaissant
▁revenue
▁Kɛlɛbolo
▁essaye
▁compt
▁transporté
arbres
▁finimugu
▁Ɲ
baju
▁Yɛrɛ
▁site
▁crucifie
▁sent
nafolow
étonna
ade
▁emploi
feerelaw
▁rapproch
nécessairement
▁lakununni
▁ɲangi
lenba
autant
sion
atrices
bɔra
nent
▁parts
▁60.
▁communi
▁expulse
IYA
Uri
ï
▁arrêtée
ves
▁Dere
tɛmɛ
▁foron
▁kilom
gé
▁kuntan
▁dagara
▁manges
▁Our
▁adressa
aises
siw
▁70.
▁dɔngɔ
ns
▁silamɛya
▁kɔkɔ
▁arrêt
▁multiplie
dépendante
▁sigidala
j
iquement
▁installe
▁devaient
no
▁Nga
▁wi
▁ɲɛnatɔmɔ
▁sarali
▁amena
mogo
vent
▁bureau
▁ikɔrɔ
ncen
minna
▁85.
▁tuaient
dili
▁sou
▁indiqué
▁Porte
▁acheta
▁gɛnbaga
ɛnɛ
cho
▁boucher
▁loua
▁fasan
▁batigɛ
▁comptes
▁proclama
▁organise
▁ramena
▁demandera
▁Kunkolo
▁fermer
lasigi
▁Bato
aidera
▁fofo
▁compté
▁accueillir
▁prêch
ver
▁joué
▁bosoli
▁waliden
▁dɔgɔn
▁waga
▁contribue
▁fréquent
illes
▁comblé
emploi
▁invité
▁constat
▁complét
▁TIT
iyatɔya
ladon
▁dulen
▁ramass
▁rest
attacha
▁récolter
▁foronto
birilen
▁inquiét
▁échappa
seaux
éprouve
▁cesser
▁Tenen
▁somi
ouvrir
appuie
▁dunnen
▁passerai
ɔmu
▁valoris
hou
▁agi
jɛgɛ
▁rapporta
éloge
NU
▁Tiè
▁Bere
explication
acte
▁affirme
▁méprise
laban
▁assuré
écorce
▁menti
kela
djinn
▁kumun
mɛlɛkɛ
ôrô
▁nono
ancien
ɔnɔ
écrit
yalen
▁pouss
suguya
▁four
lève
▁justifie
▁baptise
▁setigi
ɲin
actions
▁vase
▁ɲɛsiranya
lifɛn
Kɔnɔnin
▁kantigɛli
ouvre
enquête
Rappelle
▁faamuyalen
▁bénéficier
▁traître
▁loup
Grand
avança
▁Sept
▁selifan
impureté
▁dépenser
foie
islam
attaquer
utilité
Partons
enrichir
environ
albinos
énergie
aumône
Y
Regarde
▁supérieur
examiner
antidote
Karisa
oncle
effort
interdit
sept
sinsi
Hali
modenw
ŋana
Quiconque
observer
cheval
Fɛn
[
vieux
vérité
maasi
chose
sinsan
yeelen
elentigi
▁Ver
accuser
abeilles
ciyɛn
▁collectif
misiri
avaler
dlan
▁tord
▁kobaw
▁paternelle
lɔki
laada
▁continent
▁vaincu
▁licite
▁Puissance
▁dimanche
▁complet
▁écouté
emporta
▁vidéo
▁proverbe
▁redout
▁grenouille
▁miroir
Bi
▁frontière
▁possibilité
▁sabot
▁actuel
▁chiot
▁conséquence
▁machine
▁vierge
▁excisée
▁mouche
▁nôtre
▁ɲɛminɛ
▁captive
▁recommandation
▁universel
▁maigre
▁sentiment
▁sépare
▁sobon
▁sienne
▁déchire
▁spécifique
▁tele
vènement
▁fier
▁Ly
▁rare
femmes
▁sauterelle
ranche
▁indéfini
▁Lam
▁Wale
▁sacrée
▁Jalo
▁notion
▁Hadama
▁denbatigi
▁terrestre
▁craign
▁attribué
aucune
tratégie
Mes
▁wulil
▁châtie
che
▁arajo
▁Ke
▁pardonner
▁sévère
▁cous
▁coude
▁cachée
▁tilebi
▁régional
kisi
▁percé
▁woloso
▁baliku
▁Nom
▁lointain
▁contraint
▁suffisant
▁trancha
▁germe
▁composée
▁comprenne
▁tenue
▁denier
▁kononto
nyuman
▁paternel
▁gravit
▁kunmayelema
▁murmur
▁Kɔngɔ
kogo
▁nyangata
▁Atɛni
▁malchance
Crucifie
▁lakoori
Abyssinie
Envoie
Intégration
OGO
africantongues
ignominie
interrogèrent
labɛnnaw
ouroundinkoumala
▁Burukina
▁Cilicie
▁Gɔfɛrɛnama
▁Isimayila
▁Jatorola
▁Jatorora
▁Jengine
▁Keyita
▁Khiya
▁Kobɛɛfɔ
▁Kélénako
▁Nisɔndiya
▁Peuple
▁Sanctuaire
▁Sangamarou
▁Troas
▁accoucha
▁attentivement
▁bufflonne
▁cohorte
▁dollars
▁détruira
▁fornication
▁goote
▁guitare
▁janmanjan
▁jarisow
▁lécher
▁maximum
▁nteenten
▁pluviométrie
▁poltron
▁précipitèrent
▁quémander
▁reconstitu
▁soigneusement
▁subsistance
▁suffrage
▁syllabe
▁sénevé
▁tranquillité
▁ŋɛɲɛ
hésite
▁Finmaanin
▁SEYƐS
▁Zenezarɛti
▁carrefour
▁cinquantaine
▁cupidité
▁fisamandiya
▁glaise
▁lâcha
▁violemment
▁voudrions
▁Bandiougou
▁Cɛsamuso
▁Hamari
▁Souvent
▁VIH
▁Yaasôngô
▁aquatique
▁calcul
▁déplacer
▁milliard
▁Arrache
▁Wololabanaw
▁aigles
▁pipi
▁redéploie
seginnkanni
▁RFI
▁Sauveur
▁allies
▁hardi
▁fétichiste
▁mabɛnsiya
▁Voices
▁nganiya
▁valable
▁grec
▁Sékoro
▁pelotes
essence
▁Finmanin
▁lésés
▁musette
▁remirent
▁forteresse
▁lignée
▁Wɔlɔ
▁pèche
▁paresseuse
▁moringa
▁folofolo
AGE
▁Danbɛlɛ
▁Koninba
▁précipitamment
▁décès
▁paître
▁essaim
▁ɛrɛzɛnsun
▁jalouse
▁mahr
▁réciproque
▁wolonfila
▁éloigné
affût
▁bɛɛnkɛ
▁Sanbu
▁buvant
▁rejeter
▁suivons
▁Galo
▁Wulaju
▁Barikadali
▁stade
▁lajarabi
▁ntola
asiihu
▁Fofana
asseyèrent
▁mercredi
▁Lévi
▁tulogeren
▁trouviez
▁campement
▁Segin
▁sourire
▁torrent
judic
▁hôtesse
▁rouler
▁fumer
▁garadi
▁Chypre
▁persuader
▁Tamba
▁réparer
▁actuellement
▁confusion
▁Seriba
▁suffisait
▁lapider
▁séparèrent
affection
▁jirikuru
▁fɛlɛtigi
▁fléau
▁servaient
▁fonisireya
▁orphelin
▁kalafilen
▁Ɲinan
▁police
▁juive
▁farigan
▁raide
▁débauche
▁sɔnnibanbe
▁bɔgɔdingɛ
▁Ɲɛbila
▁dépensé
▁Kɛnɛyabaarakɛla
▁nɔnkɔn
▁exprès
▁invoquez
▁nogoyara
▁Force
▁circulation
▁redoutable
▁paralysé
▁walesugu
▁kunkankuma
▁kakalaka
▁Talaku
▁Korɛ
▁bilakorokulu
▁sirakunbɛn
▁fouga
▁droiture
NCI
▁Sipiri
▁moke
▁KAN
▁walaha
▁noblesse
▁commettent
▁bamba
▁Tɔɔrɔ
▁sutara
▁disparaîtra
épître
▁fonctionnaire
▁maisonnée
▁affectent
▁rougit
▁hakilijakabɔ
▁dɔɔnindɔɔnin
▁natabaya
▁apportèrent
▁misibo
▁attendit
▁alasɔn
▁attristés
▁radios
▁capitale
▁taureaux
▁rites
▁eeh
▁miraculeuse
▁balawu
▁jiriju
amuser
▁miliyon
▁nɔɔninen
▁toiture
▁obten
▁jalaji
▁Ɔ
▁Kanto
plia
▁millions
▁dugutilama
▁brille
▁Apɔlɔsi
▁Dondolissa
▁Guéningué
▁Handuurulay
▁Office
▁sinsantigi
▁vêtir
▁Élisabeth
▁Wulèe
▁équilibre
▁initiateur
▁gɔrɔkɔ
▁ngomi
▁Farigan
▁dagakolon
▁sogin
▁fermement
▁Arabana
▁nɔɔnsi
▁parlaient
▁lakisɛya
npye
▁largement
▁vilain
▁fasiya
▁kupu
▁Bɛtisayida
▁roben
▁danaya
▁Bwa
▁préparait
▁Sɔnni
iste
▁gabakurun
▁ɲagalen
▁soutenu
▁Barisa
▁Tumu
▁échangé
▁minutes
▁jeûner
▁passion
▁sceau
▁Nansaraw
▁gras
▁équitable
▁régionaux
▁refusait
▁limitée
▁habitaient
▁Ebere
▁situé
▁transgression
▁contredire
▁épaule
▁dors
▁sanitaires
▁gratter
▁chargée
▁coudées
▁faantanden
▁diamant
▁devais
▁demeurait
▁lointaine
▁montrez
▁dispersés
▁nyeneje
▁livrera
▁perdent
▁profitable
▁fuit
▁ŋaara
▁nɔrɔkɔ
▁Fariman
▁sumaduman
▁habitait
▁aimerait
▁cachez
▁mortel
▁Corneille
▁Attends
▁Fanhan
▁jetez
▁Alizeri
▁fununnan
▁wugu
▁sarakabɔ
▁Koɲɛ
▁anathème
▁disparut
▁rassasier
▁regroupement
▁exhortation
▁kɔsegintɔ
▁kɔdafa
▁Sɔɔni
▁kɔnɔnafililen
▁protègent
▁dépouillé
▁canon
▁fanfɛ
▁malheureux
▁yɛlɛnnen
▁Blancs
▁capturé
yme
▁Tari
▁délier
▁apportez
▁tuɲan
▁Wuyi
▁bonbon
▁connue
▁morikɛ
siya
▁revu
▁Retour
▁promise
▁Bolokodenw
▁cul
▁bangebaw
▁rurale
▁jamanna
▁Cadi
▁mors
▁kolokurun
▁fleli
▁dagunna
▁fɛɛrɛtɔ
▁effronté
▁disponibles
▁cɛmisɛnw
▁rebelles
▁voyageurs
aluta
▁Fiɲɛ
humilier
▁Misiri
▁bololabaarakɛla
▁kurulen
▁néant
▁courent
▁tonyogonw
▁haminakow
▁souffrent
▁sanimanw
▁dakabanakow
▁fɛlɛ
▁rassasiée
▁jɔsen
▁jiju
▁kɔrɔtalen
▁regardez
▁dogosiri
▁misikun
▁hait
▁soulevé
▁Diko
▁répondent
▁polisi
▁musomannin
▁siseri
▁engage
▁bakɔrɔ
▁mɔgɔɲumanw
▁manamanako
▁jagokɛla
▁chauffer
▁hakilinna
▁égare
▁neuve
▁ɲinan
▁structure
▁Encore
▁Hatabili
▁dannabaliw
▁continuent
▁remarquer
▁assied
▁Unhun
▁plateau
▁Nkɔsɔnnin
▁entrait
▁brouter
▁chienne
▁balimaya
▁rentrant
▁exil
▁surgir
▁DU
▁jirikurun
▁Ɲe
▁Vois
▁jugent
▁nanbaratɔw
▁remplisse
▁alliés
▁faatu
▁posséder
▁ânon
sons
▁utilisent
▁chiots
▁conséquences
▁justifier
yako
▁épargner
▁Donnez
▁kɔrɔkɛba
▁Sumanw
▁différencie
bakoro
arrivera
▁coudes
▁attendu
▁chassés
▁kang
▁ailes
▁warakalan
▁siéger
▁asservis
▁renvoya
▁finfin
▁Bamba
▁éteint
▁lèvera
▁Suko
urani
▁héritiers
▁talon
▁jɔsi
▁couleurs
▁sɔnnen
▁ɲagamina
▁temenen
▁fasiri
▁partions
▁kiritigɛlaw
▁secoureurs
rinman
▁reconnaîtra
▁diminna
▁motos
▁konye
zi
▁secoué
▁Koda
▁justifiés
▁bilasirali
▁coins
▁tɔɔrɔla
▁Égypte
▁saisi
lots
▁futaka
▁bantan
appliquer
▁kalafili
▁porteurs
consultation
▁Nson
▁moo
▁yira
▁solaire
▁relie
▁100.
kunna
Ton
▁obéir
▁lɔgɔ
▁tacen
▁passeront
▁tombant
▁Entré
▁nɔgɔlenya
▁éprouver
▁victimes
acceptait
▁susuli
▁Nari
▁Ture
▁événements
▁barre
▁responsabilités
▁kantigɛ
▁RSS
▁emplacement
▁tilali
▁sɛnɛf
▁amulettes
▁résister
▁fassent
apaiser
noo
uf
umun
▁Demb
▁yɛlɛmali
▁constituer
▁donnerons
▁comporter
▁sub
▁révélations
▁favoriser
▁maloyako
Monde
▁tilenbaliyako
▁dîmes
▁taatuma
élé
▁Anne
▁garan
▁refusa
▁siffle
▁ramèner
▁butigi
▁blesser
▁dugaden
▁utiles
▁marali
▁paysan
▁Dugumisɛn
▁kunatɔw
nkisɛ
▁deuil
▁goutte
▁reprocher
▁partira
▁mangeront
▁chers
▁coupables
▁abandonner
▁lie
▁purs
▁antilope
▁aperçoit
apprirent
▁Sy
▁nyogonna
▁dajɛ
▁Seule
▁nanzara
▁dogolenw
▁fauves
▁Baga
▁frappes
liya
▁yɛrɛta
dis
▁bonnets
▁Za
▁jalakitigi
▁donkilida
▁atteste
ture
▁ɲɔni
▁balay
▁préparés
▁daminɛna
▁Maaya
▁compren
▁Jamakuluba
arracher
▁Koɲɛnabɔ
▁jenina
▁joko
tinrent
▁sunbala
▁construite
▁dépendr
▁mangeur
▁bɔdon
Duk
▁fermée
▁kɔnɔganko
lankolonya
gnes
▁console
▁comparaître
▁mɔgɔjugu
▁lemuru
▁kodɔnbaga
▁kalankan
tie
▁plongea
▁kɔrɔlenw
▁kɛko
▁choisie
▁direz
▁entendue
▁Dutigi
▁dugalen
▁glisse
▁aire
▁Gosi
▁trembla
▁fɛnɲuman
ɲumanya
syɛn
▁meilleures
▁profits
▁proclam
▁kɔnɔfɛn
▁responsables
▁dabo
▁pratiqu
▁mere
ngo
antes
▁nyon
.....
niw
isent
▁Mɔgɔya
▁joginni
▁bl
▁kɛrɛnkɛrɛn
▁saches
▁lances
▁Seguka
ginnen
▁ailles
▁furucɛ
▁tannan
▁makɛw
▁jiko
yeli
▁farako
▁dabaga
▁tente
▁Mange
▁Jele
▁mɔsɔnn
▁mou
▁fɛɛrɛbɔ
▁enceintes
▁ɲininkaliw
▁dimogo
ɛsi
▁secteur
▁reproche
▁mourras
▁kamalenba
▁sels
▁voies
tirant
▁merun
lenni
kelentigi
▁labugun
▁daje
▁rapporté
▁musoko
▁v
uve
▁falenn
▁Dugumɔgɔ
▁créés
▁dises
▁mɔgɔbaw
▁convoqu
▁défend
▁Zes
salen
▁ressuscita
▁mansak
▁saban
▁agréables
▁Fabal
jago
▁nɔni
▁taaka
▁détruite
▁wuluden
▁bubaga
▁acquitt
..."
▁Ze
▁too
▁nyɛna
yɔ
likɛba
sera
koto
▁cinyen
ɔni
▁garanti
née
▁communautés
▁kɔrɔya
▁lajɛli
lajɛ
▁unité
Au
seginni
▁hauts
▁fiyɛnba
▁pointe
▁fasses
nu
▁Namaden
▁faamawariminɛna
▁mettron
▁dresser
▁im
▁walanwalan
▁jura
alo
▁vaine
▁présenté
▁klen
mogow
mɛn
elen
liw
senuw
▁sh
suke
▁dusukunna
ration
▁ɲininikɛla
▁sonnid
ɲumanw
▁dimɔgɔ
▁tranche
Su
▁manifesta
dɛmɛ
▁fêtes
sentent
encouragement
▁nɛgɛso
▁kuluba
▁proposa
▁kɛnɛyaso
dilan
ut
sentin
furaw
jatigi
▁somɔgɔ
▁faliden
▁cɛra
▁courte
▁Danna
▁damine
▁infirmité
▁ladamu
namori
saya
▁charger
▁Lion
▁sila
NI
▁dirig
▁rassur
▁apport
▁walanwalann
yusi
mar
▁munun
▁atteign
▁Jiriba
▁ɲɛjira
▁misen
nata
▁dannabali
▁wol
rais
▁Tue
tigɛla
▁walan
▁insiste
▁formé
estime
wanin
▁bonda
kɛtaw
")
venez
fɔr
▁ru
▁ment
▁pis
▁gala
▁rassemblera
▁termine
2
▁yɛrɛwolo
▁paraît
▁saniyabali
▁ɲan
▁ciya
▁mɔgɔɲɔgɔn
▁cinye
▁Sanga
issons
assion
ures
mene
▁fleuves
▁ordinaire
▁entende
▁gouvernera
▁Parle
nabiɲumanw
▁quoiqu
▁respir
▁Con
▁réalisé
▁transmet
ch
▁masaden
nikɛlaw
▁adamaden
▁Toro
ɔɔri
accoucher
égorger
▁""
▁Fin
▁imagin
▁Kaaba
▁blanchi
ras
▁Prend
▁impatient
▁jɔnminɛ
gelen
▁indépendant
▁établir
▁tintin
usi
▁denba
▁cherché
▁Saraka
▁laissera
▁Kabila
▁baarako
▁défi
▁gatigi
▁manga
karaba
▁plonge
auge
▁wolofa
▁diyatigi
▁jɛnsɛ
inf
▁sot
▁taamasiyɛn
▁guérira
▁invit
▁cɛfarin
nbaliya
▁honore
▁réfugie
sɛ
▁mabɛn
▁Mé
▁Teri
▁observé
gere
▁emmène
nie
cités
▁meurtri
▁duré
▁repose
▁lié
ottes
jurusara
▁méfie
magan
▁dadon
ɲumannin
▁obscur
ountou
▁Basi
▁sɔrɔw
▁Baden
▁établis
▁épuisé
▁accompagne
▁montera
▁rate
▁laadiri
Koma
ing
IGI
▁Seul
▁Nata
▁eue
▁sabalibaga
▁166.
▁crache
intéresse
▁transformé
dia
quelles
▁Sɔmi
▁résistant
▁rasé
▁tlo
musonin
tulon
retenir
gɛrɛ
appelleras
▁rattraper
«
▁suivra
▁goûte
héritier
égalité
▁éloigne
ler
nyogon
attrape
▁épousé
▁fiɲɛba
▁giri
mobilisation
initiative
▁donn
activité
▁organisé
▁bouché
▁Binba
vingt
ajoute
sɛn
outil
▁Hadamaden
▁voudra
imaniyabagaw
▁kum
▁conserver
▁sababuw
enfanter
efficac
▁Bozo
explique
(
entraide
▁sofa
accomplisse
aurore
fɛɛrɛw
rr
▁kɔnn
osait
▁Mansa
▁noro
▁assist
attaque
▁ç
▁goinfre
isolé
expulse
▁décider
île
KO
Kɛ
atteste
accueil
▁humilié
Bamba
mura
Comme
internet
agrément
attentif
SERIBA
demain
épaule
éteint
ncinin
idiot
tɛrɛbɔ
ouvrira
inventaire
Heureux
énorme
Vraiment
auparavant
bobo
diversité
autrefois
▁bolonkoni
enceinte
Aladin
champ
Certes
envoyé
buuru
▁senkɔrɔ
vraiment
derrière
▁prophétise
faites
Sama
Dites
dugukolo
ɲana
▁physique
Élie
▁favorise
oiseaux
▁Fanga
dix
Roi
▁participe
nkala
▁bouff
▁Dɛmɛ
ordures
▁chère
▁poster
▁bourse
▁satisfait
Fille
▁flamme
▁soignant
▁verge
▁honnête
▁préparation
▁chauffe
▁faiblesse
yala
Amerik
ajinin
▁miracle
▁entreprise
▁relation
▁pêcheur
Mali
▁scribe
siga
▁boulette
▁ɲɛsiran
▁côte
▁dugujukɔrɔ
joignit
▁kungokolo
▁vice
▁allié
▁raisonnable
▁danseur
org
▁publicain
▁changement
▁reçoi
éfense
▁culturelle
tabaa
sabu
appuya
ouchant
▁arabe
▁denyɛrɛni
deux
▁associé
▁avantage
▁cibaga
▁vole
▁filiw
▁barikantan
▁plomb
▁élément
▁renversé
arranger
amuse
▁Galileka
▁prompt
▁Denmisɛnni
endr
ƐSI
▁yɛrɛtanga
▁lot
sabara
▁National
lobal
▁écrase
▁mɔgɔfagala
▁falatɔ
▁lâche
▁protégé
▁pharmacie
▁hamina
oumouni
richeuse
grande
ganw
▁cuir
pare
▁avancé
▁Matat
▁prosterna
▁ntɛnɛ
▁conçu
raɲɔgɔnkan
▁nouvel
▁utilis
▁brûlant
▁fiancé
▁connaisse
▁disparaît
ore
▁alaɲɛsiran
▁teren
empoisonne
ulbe
▁pleut
▁ŋani
▁suive
▁sukasi
▁accordé
univers
▁Sache
suffisan
+
▁blasphémé
▁nostalgi
▁sensibilis
Hadès
NUFU
appentis
exercice
ivresse
▁%
▁Aigles
▁Aquilas
▁Azymes
▁Banakisɛfagalan
▁Baninyegene
▁Beyrouth
▁Consomm
▁Daramanin
▁Discussion
▁Famusanin
▁Founédougou
▁Ginbala
▁Hugues
▁Jafarabe
▁Kerete
▁Koulikoro
▁Kounkoumba
▁Lankankoro
▁Mɔgɔmurutilen
▁Nathanaèl
▁Nazarénien
▁Ndoolen
▁Nyahala
▁Préparation
▁Scorpion
▁Syméon
▁Tesalɔniki
▁Travaill
▁Tɛsalɔniki
▁Vitamine
▁Worokiya
▁annonciateur
▁antennes
▁balafagajo
▁chefferie
▁corroder
▁cortège
▁couffins
▁cynocéphale
▁disparition
▁dogomandi
▁dègè
▁déplacement
▁facilité
▁financière
▁forcément
▁fouisseur
▁funfun
▁institué
▁jaloux
▁jinemori
▁jokɔɔnin
▁juridique
▁khaara
▁kɔtikɔ
▁linceul
▁moustiquaire
▁patrouille
▁permit
▁pourchassa
▁prescriv
▁prospérer
▁proximité
▁prémices
▁péter
▁recommença
▁remercions
▁représente
▁république
▁satiété
▁sciemment
▁signataires
▁superflu
▁téméraire
▁venons
▁vigueur
▁xylophone
▁Ɛgiliw
animosité
▁Droit
▁Turamakhan
▁buveur
▁cuivre
▁gendarme
▁humide
▁inaugur
▁laɲɛnamaya
▁mɔgɔlandiya
▁patate
▁rampa
▁Bankumana
▁gencives
▁kannadɔlɔki
▁suffisamment
▁insignes
▁signification
▁soudure
▁vengeance
SIBIRI
SOGONA
SOMI
YUMA
étable
▁Sodome
▁Soumis
▁npila
▁pouvant
▁composantes
▁dépit
▁gouvernance
▁intercession
▁pleuvoir
▁spéciaux
▁ɲɔgɔlɔn
▁Nyagalen
▁gourmandise
▁générosité
▁lapin
▁segment
▁dialogue
▁priorité
▁prouvé
▁répète
MANYAN
▁diyɛnlabandon
▁Nokanden
▁desebaato
▁royaux
▁sigarɛti
▁battage
▁déterre
▁réception
endormit
▁halala
▁souvenir
▁Nanalé
▁ferebaato
▁collaboration
▁procède
▁ɲaamɛ
▁charbon
▁faratalen
▁gousse
▁ntèent
▁entriez
▁soumission
▁Minɛ
▁nyɛgɛnɛ
▁sigasiga
▁jiginkitabu
▁besace
▁désespoir
▁Eeeeh
▁Terre
▁Reconnaissant
▁kuturu
▁cordon
CEKO
▁verrons
▁totalité
▁foudre
▁Balajigi
▁mɔbili
▁bénissons
▁conducteur
JIGIZAN
▁gundomajira
KOMAN
▁conservation
▁puissiez
▁Jingin
exode
▁Mort
▁publier
accompagnaient
ormis
▁cracheur
▁moquaient
▁Doroko
▁Mankoro
▁malchanceux
▁nimisiwa
unijambiste
▁poursuivirent
▁employer
▁réjouissent
▁rêvé
▁alluma
▁bombes
▁Kaarta
▁réins
▁Kontoron
▁militaire
▁participation
▁Goro
▁tamaki
▁Sɔgɔmada
▁fitiriwaleya
▁avertissement
▁fâché
▁tɔrɔsun
▁bavarder
▁civile
▁dédaigne
▁Guimbala
▁Sokoro
▁Hier
▁déménager
▁Musokoronin
▁ruche
▁lentement
▁mousse
▁hate
▁Kulubali
fourneaux
▁joug
▁diyɛndenya
▁sûreté
▁matches
▁Ikoniyɔmu
▁revêtit
▁contradiction
▁connexion
▁chiquer
▁'(
étape
▁Kɛnɛ
▁voyaient
▁Yoro
Hommes
grement
▁rusé
▁wulafɛ
▁tɔpɔtɔli
▁combattez
▁Jinɛmasa
▁mandat
▁kumuntan
▁penchant
▁Khaya
▁kɔrɔbɔrɔ
▁Wd
Bɛnkansɛbɛn
▁saluèrent
▁touchèrent
▁transgressez
▁prêché
▁causeurs
▁bagabaga
▁Bula
▁Furusa
▁bakoronin
▁kelekele
▁korosse
▁découvre
▁labugunni
▁délivran
olari
▁supplié
▁contracter
▁complais
▁Kenyi
▁majiginnen
Wiyan
▁Mangala
▁arrêtez
▁malice
▁biriki
▁habillés
▁légistes
▁patriarches
▁transitifs
▁mototaxis
▁voudrait
▁occupations
▁boiteux
▁postés
▁namaranin
▁Sosen
▁grimpe
▁Situlu
▁fassiez
▁Kutub
▁Eeh
▁charr
▁buvait
bɔnnas
▁vocation
▁Jude
▁Institution
▁Jènginè
▁café
▁douchière
▁ustensiles
▁yigiyigi
▁walawala
▁keleke
▁twala
▁Burkina
▁yanno
▁venger
▁obéissent
▁yirika
▁accusateur
▁kɔlibagatɔ
▁Nɔgɔya
▁Jesus
▁jiginjigin
▁tuberculose
▁Kɔnɔboli
▁exigea
▁nutrition
▁Bɛndugu
▁recommander
▁twitter
gardèrent
▁nkeerennin
▁prosternant
▁mardi
lɔmin
▁Senuman
▁quête
▁critique
▁Benɛna
▁nettoyer
▁fyewu
▁duurunan
▁syɛkili
▁Voie
▁cherchèrent
▁glob
ɔnye
▁fɛrɛlen
▁majamuni
▁établissement
▁souvenez
▁appartenait
▁considérer
▁tromperie
▁accouru
▁participent
▁pondu
▁faisais
▁décret
▁tricheuse
▁surunyalen
▁Boula
▁indigne
▁plaque
▁trahit
▁professionnelle
▁Biɲɛ
▁Chrétiens
▁secouer
▁intestins
avala
lusieurs
▁Toumou
▁persécutes
▁connaisseur
▁croyante
▁baisser
▁inconnu
▁bɛnbakɛ
▁thé
▁provoquer
▁gri
▁perçu
▁Israélites
▁compétentes
▁tolilen
▁assistants
▁rayons
▁excité
▁trempé
▁accordée
▁Kulokan
ddition
Den
▁claire
▁adopt
▁Kayaba
▁Fili
▁travailleurs
▁nyamakala
▁nisɔndiyalenba
▁nɛgɛjɔlɔkɔ
▁habité
▁chercheurs
▁prétendant
duit
▁seerejuguya
▁denwolo
▁Laadilikan
▁kelenna
▁Sababu
▁devancer
▁ressouda
▁peste
▁survenue
▁silameya
▁relevant
▁banginni
▁librement
▁banbagatɔ
▁transporte
▁ntonkun
▁Aritem
▁dugucamancɛ
▁sinsinnanw
▁Moise
▁kɔnɔdimin
▁André
▁Iscariote
▁Fétiche
▁acceptons
▁Êt
▁informatique
▁perdition
▁bakɔ
▁parfaite
▁jigila
▁Demandez
▁Konu
▁pati
▁tirez
▁Toman
▁battent
▁parata
▁jamannen
▁pêcher
▁dugukɔnɔna
▁galodugu
▁trousses
▁Sekɔrɔ
▁humanitaires
▁téléphoniques
▁colombes
▁1997
▁délivrés
▁largesses
▁tantôt
bilennin
allonge
utres
▁jɛngɛn
▁précédé
anime
▁perde
▁entrave
▁hɔn
▁Ramasse
▁timi
▁disais
▁entraîné
▁cassé
▁Noé
▁Kaminy
ques
▁obéit
▁Mission
▁témoignent
esse
▁coupée
▁vulnérables
▁naturels
▁nɛgɛnni
▁dawolo
▁séchée
▁menaces
▁sécuritaires
▁mamelles
▁arrivaient
▁wote
▁empêchés
▁abîme
▁duniya
▁ɲagalila
▁grammaticales
▁Zerusalɛmukaw
▁tiers
▁outrages
▁chantèrent
▁denyɛrɛnin
▁kɔlɛ
▁émission
▁gâtée
▁tordu
▁âgées
▁rompu
▁cueille
▁manton
▁courbe
▁aumône
bilali
▁Buran
▁Samaya
▁ancien
▁réglé
▁tabou
▁mordre
▁spéciales
▁latunun
Écoutez
▁méfaits
▁graviers
▁renvoyé
▁mg
▁transmissi
▁peureux
▁forotigi
▁séparés
▁yafali
▁avare
▁pomme
▁lenburu
▁personnelles
▁porogaramu
▁empressement
▁ardeur
▁enfance
▁Siyaw
▁kunfe
▁tiendra
artisanat
▁manuel
late
fagadonso
▁ntigi
▁daliluya
▁exposer
▁recommandé
▁ressortir
▁transformés
▁Cekura
▁respectent
▁kolonkalan
▁musoya
▁kɔsɔn
rɔfɛn
▁maracogo
▁kunntanw
▁Jɔ
▁orthographe
▁Étienne
▁baraden
▁possibilités
▁vierges
▁excisées
▁levée
▁portail
▁Mɔ
itɛri
▁constaté
▁yɔrɔmin
ification
▁relevée
▁Fiyen
▁coupait
▁Regardez
▁claires
▁sumankisɛ
▁Glo
▁recette
▁Tujan
▁tuniques
▁tilayɔrɔ
▁importés
▁fuse
▁mangeons
▁laadilikan
▁erreur
▁SERIBA
▁attentif
▁porteras
▁privés
▁siranbagatɔ
joloko
▁kolatigɛ
▁kunbɛnna
▁pioches
▁desseins
▁convenus
▁bolokuru
▁voitures
▁mordu
▁demeuré
▁furr
▁rentrés
▁tomberont
euse
▁conseiller
▁iyo
▁traités
▁trouvées
▁cesiri
▁hele
▁albinos
▁énergie
▁homonymes
▁hangars
▁troupes
▁protesta
ffres
▁baptisa
alɔ
▁jidaga
òn
▁contract
▁nyemogo
▁jigira
▁Garde
▁dɔgɔdalen
▁[]
▁tari
▁déterminants
▁kɔdi
▁dupe
▁Mac
▁régi
▁échec
▁sido
▁confér
▁dirigeant
nda
▁panthères
▁essaya
▁kalaka
▁kiriko
▁imposé
▁kɔlɔlɔw
▁payés
▁2006)
▁fins
▁dɔgɔtɔrɔw
▁accuser
acquitter
▁réservés
▁pénétré
▁équipement
▁Conte
cogow
▁bouchée
▁enseignements
▁scorpions
▁organisée
▁confia
▁cɛɲɛ
ches
▁Nazarɛtika
▁bain
▁naissent
gérer
▁Suis
gardant
▁semences
▁tranquilles
▁égarement
▁lavée
▁organisation
▁pɛrɛnda
▁capture
▁glaives
▁mobiles
▁bayi
nés
▁kunbere
▁marié
▁kofo
▁défunte
▁walema
▁Musonin
▁Dumunifɛn
▁dasi
▁Wo
▁bɛrɛma
▁dénigre
▁Oho
▁wuya
▁nyenema
▁gɛnna
▁lafiɲɛ
▁réussis
▁haches
▁tuerait
▁allume
▁Bamuso
▁distinguer
▁économiques
▁trésors
▁travaillera
▁finya
▁usé
▁dɔnnibaa
▁jelikuntigi
▁sine
▁dasiri
ayɛli
▁plaies
▁fiche
▁2000
▁ɲɛbila
▁pleures
▁inutiles
▁pintades
hera
▁sabre
▁kooro
▁kekun
▁ador
▁mentir
▁acceptent
▁rapides
▁modes
bɔn
▁taire
▁woso
joindre
▁kinti
▁tlonkɛ
▁cueilli
faralen
▁saratiw
▁bambous
▁tradui
▁dumunidila
▁loge
▁mérites
▁fra
▁publiques
▁réforme
▁confiés
▁ŋunu
▁togodalamuso
▁souffla
▁siramisɛn
▁déplacée
ANI
▁Kounoun
▁teint
▁cɛjan
▁nɔnsi
agaji
ités
▁dɔnbagaba
▁700
git
▁facteur
▁fɛnɛ
▁entendent
▁tôle
▁sabatilen
gara
▁liba
▁wagan
▁Paw
▁taato
▁misigɛn
▁tombées
▁mandenka
▁Faraw
▁comprendra
▁Kényé
▁batoso
▁dig
▁cayalen
▁combler
entente
▁devr
▁fiyenn
▁fɔlifɛn
kisɛw
kɔnɔmɔgɔ
unir
▁welekan
▁Maraka
suli
durée
▁lampes
▁supervis
▁fentigi
▁avança
ubabu
▁Alif
▁amie
baliw
▁balola
▁provena
▁deviner
riba
▁distances
▁sacrifie
luya
nkoni
accrocha
▁repart
▁flan
▁sari
années
▁crapauds
▁épreuve
▁retourn
▁kɔda
▁resterai
▁franchir
▁chrétien
quer
denya
▁utilisée
▁inclus
▁béliers
▁quittera
▁Tɛmɛn
▁mûre
▁imbécile
▁échoue
isibaga
dan
▁fifal
▁bolokolen
▁bwa
▁jaraden
▁recommanda
▁konyoden
▁Nabaga
▁Togo
▁ferais
Vie
▁nyumanw
▁doutes
lafɛnw
Eu
kumaden
▁couverte
▁sauvera
▁Action
Neuf
ɔntara
tez
folen
wagati
▁Kojugu
▁mêle
▁fusse
▁tumamin
tournant
▁imposa
ngeance
gin
attrapent
owe
▁courants
▁lagosi
attendaient
nuw
ateur
▁importe
▁réseau
▁donnerais
▁semble
▁dicogo
▁kunfin
▁fununa
▁kɛtuma
▁devine
▁kininfɛ
▁tununa
▁takisi
▁Bambaras
▁fouet
▁entonn
iers
mansa
bala
▁feereta
▁dépêch
▁Quitt
▁préparée
▁Bɔr
asseur
adamadenya
▁affirm
▁daman
foli
▁nyanam
sonsannin
▁kɔnɔdaɲɛ
▁karama
kata
▁remonta
▁profiter
▁versée
▁foyers
▁possibles
▁kunnafonidi
▁lasɔrɔ
▁aimes
▁sɔmi
▁yaara
▁considér
vis
▁permets
▁gouverner
laji
▁semaines
▁Char
ize
▁bec
bili
atteindra
▁nakuru
▁atteigne
▁fela
▁épous
▁niyoro
▁Dji
▁fɔko
▁Bab
▁sange
▁dagayɔrɔ
▁rembourser
abatte
coller
nkalo
Es
▁ôter
▁statu
▁revêt
▁ɛR
▁circule
▁nanalen
écri
terminer
▁naîtra
▁bonna
gi
▁Jenin
▁vende
▁Ku
▁suivrai
doni
acceptera
▁espère
▁ôta
▁allonge
▁dantigɛli
Zakariya
musokɔrɔ
▁hérite
▁fabriqu
koji
▁décharge
▁Nya
▁gaw
▁herbe
juruw
▁bɛlɛn
npɛtɛ
▁Fala
bougou
bɛri
▁Pr
▁Tou
Tubabukan
yɔn
▁causée
gɛ
▁boloci
▁convoite
majira
▁balanza
art
▁banana
▁procure
marayɔrɔ
▁canton
ɛli
▁anéanti
▁Ét
appelles
▁Dun
▁mens
▁constitu
kukala
▁dieux
▁contente
▁domin
kɛw
▁sann
rak
enw
▁farikoloɲɛnajɛ
cent
▁flatte
▁musokɔrɔ
fugulan
▁Fɔr
▁accompliss
ilisi
▁z
were
ies
appellera
▁sagona
▁batobaga
ssa
▁réserv
lata
▁compose
égaler
ensem
▁remplace
peren
▁assid
alasa
▁montée
Fa
▁support
▁regret
kɔlɔ
out
▁Siya
▁dafɛn
▁aurai
▁Jatigi
▁guérisse
kɛbaga
Chat
▁confond
yɛtigi
▁sanfiny
cus
UA
▁1963
ré
▁lafasali
amant
rices
▁Haut
▁témoign
nnu
▁Minis
▁risquer
▁jɛgɛw
cycl
wo
ssement
ncement
tere
▁Kɔlɔsi
▁réconfort
▁kabakol
▁salu
kɛkoɲuman
▁subven
kona
▁Pay
mer
eneke
▁vues
▁invita
▁tɛgɛmagɛlɛ
▁spécial
▁Fana
▁retrouva
▁réclamer
ac
SI
▁Regard
ɔnin
▁dɔnnin
▁découp
ements
kalaw
▁dondon
▁nafaw
▁yuru
mè
dre
ana
▁Dusu
▁pil
▁préserv
▁loué
mini
ɲɛmɔgɔw
Modi
▁pus
▁inclin
▁jɛmu
Prendr
▁plie
▁Baw
▁interroge
▁Bou
iras
▁expir
▁correspond
llier
oui
kɔnin
▁mande
▁nenili
▁tura
▁motiv
low
ssant
▁rétabli
jiginni
▁Gu
ansara
▁adorer
▁taba
vide
rɔn
yɛlɛ
▁subsiste
abst
ider
▁rec
▁information
▁benn
ngue
laku
arrache
▁enfoui
éclair
ho
tara
va
siba
yè
tour
LI
▁Kɔlɔsili
▁duba
▁abuse
▁rentrera
▁péri
jon
▁Wal
▁souhaita
▁jida
▁Ara
▁lamuruti
▁transgresse
IS
▁dilanna
▁conduisi
▁super
bama
▁tache
jaba
▁gerenn
ination
▁Dé
envoyez
▁tracasse
abata
tege
▁gliss
▁retombe
rire
▁fununan
▁denntan
joint
▁fleuri
bora
▁suspend
▁Po
▁Jula
baganci
▁Juste
ller
fiɲɛ
kokuma
▁pourri
kunkolo
▁Tumani
▁implor
▁séparé
mm
jigi
vit
▁évoqué
fiya
kali
53)
▁station
▁wal
▁bru
▁artisan
▁récite
interroge
▁exist
▁aventure
▁Sariya
Kitabadinga
▁déployé
▁press
▁dolow
▁haïs
danga
ɲan
▁déterminé
▁diminue
gaw
▁kɔrɔnfɛ
▁pri
▁bitigi
▁battu
bles
ɔgɔw
▁découvri
fasi
▁fɔlɔla
insulte
ɛnɛba
économique
Parc
▁Surɔ
famille
appellerai
banc
▁tais
ɔrɔ
sœur
▁bouge
]:
▁trahis
tions
▁réfléchis
ntes
▁recul
▁koɲɛnabɔ
▁devrai
▁resplendi
ck
çons
▁entoura
▁constitué
eleya
▁pann
chez
▁posera
▁punir
NIN
échappe
akɔ
ert
▁Mak
▁glissa
Demande
utilise
égare
Petit
accueillit
apparence
hypocrisie
olivier
exploitation
accompagne
hiver
▁réalise
quelqu
▁exclu
achèvement
urgence
▁version
▁layiriwa
enclos
excision
incendie
▁Barika
iniquité
▁âgé
▁promett
yel
▁franc
Dugu
Forgeron
Paix
estomac
exception
manyaka
ordonne
Haut
bilako
Croyez
Bonsoir
eunuque
onction
écoutait
▁exaucé
orthographe
Étienne
ɛR
orphelin
ânon
Donne
▁détail
issue
▁ŋa
▁direct
arrière
fasokan
▁évident
Regardez
Donnez
Éphèse
CSA
aimable
impur
Jamais
envoya
bɛlɛ
▁édit
aiguille
Puissant
observent
éviter
Omniscient
inquiète
Laissez
fleuve
espèce
Simɔn
fɛrɛ
sababu
iyasi
▁serré
effet
Fanta
Dans
ancienne
seulement
allaient
insulter
buguri
▁isansi
Simon
adversaire
Siga
▁vantardise
▁consigne
▁professeur
▁nyana
tulo
▁Laada
uscule
▁péril
▁peche
▁nɔngɔn
▁délég
ainsi
▁calomnie
▁boeuf
▁bénéfice
▁illégitime
Puis
dehors
▁coord
▁engagée
munun
▁provision
▁arbuste
▁zu
▁transmis
aurions
▁gravier
▁méfait
▁rejoint
▁tamasiɲɛ
donc
▁persécuté
▁piqûre
▁méthode
▁batterie
▁Sɔgɔsɔgɔ
▁gann
▁notable
▁médicale
▁Grec
danna
▁mécréant
▁Malinké
▁perle
▁poste
▁réjouis
▁janw
▁Juda
▁personnelle
▁nɔgɔman
sirannen
alliance
▁sonyalikɛla
▁cons
nnenw
kè
petite
dafalen
▁haminako
animaux
amena
▁sanctifié
▁invoqu
nnikɛla
jeni
▁saniman
▁dakabanako
▁Bu
AN
▁Bisimila
bono
▁mali
▁régionale
donda
ɛnɛma
kunan
olonkoninden
▁tubercule
▁incantation
▁komayelema
▁Badji
ɲɛn
unique
▁penché
▁binkanni
kuntan
▁ŋara
▁accouche
égi
▁allongé
▁tronqué
▁tɔlɔ
▁Pisidi
entende
sseyez
xplication
▁bugurin
▁revienne
▁pensé
édicaments
▁refroidi
▁prosterne
▁plaise
▁profane
▁rajoute
pplication
▁apostol
▁voisine
▁construis
ieds
▁réel
▁tɔpɔtɔ
▁spécifi
cah
▁épais
▁excuse
saumes
roblèmes
▁adieu
▁rival
mérique
onférence
approvisionne
▁Lawodise
▁prioritaire
Arachide
agroécologie
alphabet
ensevelissement
esplanade
idolâtrie
kòrò
perçois
ricordieux
strophe
électricité
ɔngɔrɔ
▁Associateurs
▁Babylone
▁Badonba
▁Bancoumana
▁Banisilayila
▁Bethléem
▁Condition
▁Crète
▁Diafarabé
▁Dioulbé
▁Dusukorongasa
▁Griot
▁Isiyaka
▁Kossilabougou
▁Kérété
▁Laodicée
▁Maritiniki
▁Mecque
▁Munyuku
▁Nicodème
▁Nikodɛmu
▁Pareillement
▁Premier
▁Renforce
▁Romains
▁République
▁Thessaloniciens
▁Trésor
▁Tychique
▁Vocabulaire
▁Yacouba
▁Yɛrɛkunmabɔ
▁abondamment
▁abondants
▁abîmé
▁alimami
▁bastonnade
▁bestiaux
▁bourrasque
▁broussailles
▁bunahadamaden
▁calamité
▁cancrelat
▁captivité
▁catégorique
▁cauchemar
▁cicatrice
▁clarté
▁contrée
▁coranique
▁corpus
▁créancier
▁distraire
▁dormait
▁déclarèrent
▁dégagé
▁dépourvu
▁dɛndɛn
▁dɛngɛnɛya
▁empoisonné
▁fléchette
▁geôlier
▁gombo
▁gramme
▁génitales
▁géographique
▁immobile
▁kunmasuuli
▁libère
▁lumineux
▁légitime
▁maléfique
▁mpéri
▁muscles
▁médicaux
▁npɔliyɔ
▁originaire
▁orthographique
▁paragraphe
▁perdrix
▁pertinents
▁philo
▁poroze
▁prodigieuse
▁provocation
▁préventive
▁pâque
▁rivaux
▁rythme
▁scientifique
▁simplicité
▁sirakɔgɔma
▁souveraineté
▁tourbillon
▁tuubiminɛbaga
▁vessie
▁vinaigre
▁vocabulaire
▁vulgaire
▁yamariya
▁échauffé
▁échéance
Panthère
oryctérope
▁Firiya
▁accepti
▁concorde
▁contrist
▁endolori
▁infiniment
▁masqué
▁mouchoir
▁ménage
▁perpétr
▁successeur
▁sépulcre
▁troqu
apparition
▁Blankɔ
▁Haradala
▁binimini
▁compassion
▁conviction
▁fraternité
▁niébé
▁pelletée
▁poursuis
▁rédemption
▁siginono
▁similaires
pprob
▁faîte
▁firifiri
▁détresse
▁trafic
JIRIBA
▁Tarse
▁animistes
▁dispens
▁effectif
▁garçonnet
▁hémorroï
▁seigneur
▁Prince
golade
▁Dosokɔrɔ
▁bienséance
▁conception
▁levure
▁poterie
▁samiɲɛ
▁tɔnnyɔgɔn
▁wolonfla
▁enfermé
▁kannadulɔki
▁latimɛ
▁persévérance
▁possesseur
▁secouru
▁wurudi
▁Lieu
▁dalakɛɲɛ
▁recompense
▁cooko
▁dabɔlɔ
▁hutte
▁repentance
▁soulève
▁édifié
▁mouraient
▁wolonwila
▁coquille
▁réjouissance
▁répétition
▁yaada
▁rançon
▁diffère
▁dénuement
▁pénis
▁goroko
▁ivres
▁prétoire
▁remplacé
DUGU
▁Moussa
▁chaume
▁piscine
▁pécheresse
▁loisir
▁vif
▁augure
▁convertissent
▁déroula
▁Préparez
▁agréé
▁dressé
▁gisait
▁plumage
▁profession
▁rejoignirent
▁champêtres
▁damakɛɲɛ
▁écoulé
indépendance
▁pipe
▁baganfurakɛ
▁funanke
▁nywari
▁reviens
▁wɔlɔsɔ
▁remédier
▁répit
▁Mamoudou
▁latanga
▁échappé
▁Basijirinin
▁Furancɛwaati
▁Sennɔ
▁pureté
▁Porozɛ
▁caca
▁voisinage
▁répéter
▁diacres
▁répétèrent
▁gɛrɛntɛ
effroi
▁trame
▁Denyɛrɛni
▁consensuelle
▁souviennent
▁wetaala
▁plantations
▁wusulan
▁numérique
▁tilerɔfana
▁subissent
▁devrions
▁saisissant
▁prédit
▁masurunna
endormir
▁désobéissance
▁maudire
▁nécessiteux
▁dondoli
▁Mamudu
▁lutté
▁Gɛnnikɛla
▁Zase
▁Kunungo
▁rezo
▁wee
adolescent
▁ɲɛnibagatɔ
▁furadanma
▁scission
▁céder
exclamèrent
▁Minyan
▁panpan
▁kɔlafalen
▁Jinɛma
▁réjouissez
▁Morike
▁mâchoiron
▁tomate
▁wulakono
MENT
▁renvoie
KOLI
▁Tarisi
▁VII
▁ntubannin
▁gɛnyɛ
▁tilelafana
▁chargeurs
▁moquerie
▁Kusa
▁inafo
▁tɔnɔmada
▁déroute
▁pleuré
▁réprimande
▁sinsinbere
▁veuille
▁respiration
▁kogonin
envoler
▁blottir
▁jumadon
tivement
▁fréquentation
▁naturellement
▁signifiait
▁comparable
▁chômage
▁compare
▁frange
▁Warijɛ
▁bilelen
▁coudre
▁Fort
▁danmantan
▁décapiter
▁surprendre
▁comité
▁sugunɛ
▁fugari
▁recherché
▁prendrons
▁prévoir
▁kamalenkoro
▁producteur
▁préférer
▁habitué
▁bugubugu
▁damina
▁fatura
▁visité
▁kunbayara
▁Karata
▁fraîcheur
▁baigner
▁sɔgɔsɔgɔninjɛ
▁amenez
ɔrɔkelennasigi
▁Koulou
▁Mɛnɛmɛnɛnin
▁dannatige
▁sorontan
▁musokolonden
▁habille
malo
▁segenbaato
▁kɔrɔbayara
écité
▁ŋɔmi
▁renseignement
▁nogoya
▁remettez
▁éduqu
hantakula
▁doive
▁pèse
▁Linjila
référence
▁manquait
▁sinyeta
▁segifa
▁Kɔrɔti
▁détacher
▁adorez
▁bulɔgutigi
▁Bɔkɔ
▁kɔsalamɔgɔ
▁Jonkala
▁ntamaro
▁Tɔnba
▁bɔnyɔgɔn
▁tereke
▁laadibaga
▁valeureux
▁essayé
▁ɲɛbɛrɛ
▁rajouter
▁Kaburu
▁donnons
▁myɛtɔ
▁donsokara
▁propreté
▁baarakɛcogo
▁fitinɛdaga
▁clients
▁corbeilles
▁gigots
▁mixtes
▁presbytres
▁suggestions
▁baaraboloda
lateforme
▁bâtiments
▁nalonma
▁emmené
▁buvez
▁gende
ATION
élaboration
▁disputés
▁lahɔrɔmakalo
▁vivons
▁Mamu
▁Efɛzikaw
▁nakɔkɔnɔfɛn
▁fusaya
Ses
▁renversa
▁conservent
▁lɛnpo
▁tranquillement
▁neveu
▁produisent
▁jatebla
Saou
▁kansure
▁Sibiridon
▁maltraiter
▁Sidabana
▁bienveillant
▁retirées
▁Ismaël
▁Lafiyɛndon
▁hyponymes
▁mourrez
▁opportunité
▁Diallo
▁Gorki
▁saignements
▁oooh
▁envahi
▁parure
▁déchirure
▁manifestation
▁Hélas
▁nywan
▁yɛrɛyɛrɛtɔ
▁fourré
▁MƆ
▁énumér
▁identique
▁sirafana
▁dossier
▁hadiya
sebeninku
▁makunnen
▁Jabate
▁lakunu
▁veillez
▁Koutou
▁dusumandi
▁étonnante
▁Donneur
▁kɔrɔsyɛn
▁inutilement
▁cooloya
▁Alexandre
▁nyemada
▁bâtie
▁perversité
▁Montrez
▁vivement
▁Salon
amusent
▁sumansi
▁Jamu
▁hurlement
▁nimisara
▁kanhɔrɔnya
▁nafabɔ
▁précipiter
▁rugi
▁Créateur
▁adopter
▁couteaux
▁sagadennin
engendrer
▁nalidon
▁Bakoronin
▁revenant
▁persuadé
▁vanter
▁emprunter
▁sufɛlan
▁kunundon
▁ɲɛnatɔmɔnen
▁kabanɔgɔ
▁Marisi
jamanaw
Entre
▁vivez
▁ɲɛmaa
▁kafiri
▁foot
▁pieuse
▁souhaité
▁équipe
▁arrangement
▁paresse
▁bêle
▁ignorants
▁invisibles
▁binkɛnɛ
▁contempl
▁Aaah
▁drogues
▁prostituées
▁temoins
▁grades
▁permettez
▁waliju
▁quotidiens
▁mentionnés
▁sarment
▁guêpes
▁ntɛnɛn
▁salir
susu
▁croirez
▁Fakoli
▁muguri
▁hakilintanya
▁Milet
▁Foroko
▁Futaka
banatɔ
prestidigitation
▁sibɛri
▁rêver
▁sar
▁kɛwaleɲuman
▁Delina
▁Filanin
▁Kabakuru
▁cɛgana
▁kuncɛli
▁kuyu
▁Kaara
▁menton
▁jango
▁taamasy
▁concernées
▁battant
▁Reste
▁kasoladon
▁bolisɔnsogow
ulakɔnɔn
▁tɔlɔlen
▁latɛmɛn
▁reposent
▁joro
▁CEDEAO
▁habile
▁volontaire
▁accroupi
▁allure
▁sawura
▁colporteur
▁étudiant
▁réussirait
▁expérimenté
▁appellation
▁voyelle
▁Levant
▁maninkala
▁mɔgɔtiɲɛnenw
▁souiller
▁suuru
▁éprouve
▁Kungolo
▁discrètement
▁teliyara
▁pleurant
▁yɛrɛbonya
▁profité
▁ONG
▁dɔgɔyara
▁endormie
▁offrez
▁idole
▁concours
▁illicites
▁malfaiteurs
▁superstitions
▁piquets
▁aisé
▁stratégies
▁relevés
▁écartés
▁continuait
▁officielle
▁kosilabugu
▁regardaient
▁transformation
▁jeûnent
▁degunnen
▁indigents
arijan
▁redresser
▁succomber
▁sifilɛ
falenfalen
▁règlement
▁glorifient
▁tilenbali
▁paquet
▁solila
▁regardèrent
▁jiidili
▁4000
▁Mathe
▁refusez
enterre
▁Dunfɛn
▁charnelle
▁jetée
ntin
▁janyana
▁quart
▁cadette
▁dumunikɛyɔrɔ
▁souffler
▁vieilli
▁bolodalenw
ingratitude
▁meute
▁hɔrɔnyasira
▁revêtu
▁filimu
▁Maliden
▁Fass
▁disputent
▁girinman
▁kɛnyɛna
▁surplus
▁Kise
▁kofɔra
▁diyɛnso
▁Noirs
▁Samaritains
▁incrédules
▁Sabula
▁laissaient
▁Baloko
▁essentiels
▁fransɛ
▁équivalent
▁extérieures
▁emmener
▁générale
▁Founya
▁saamɛ
▁Aidez
▁fondations
ctueux
▁mɔgɔyaji
petits
▁approchait
▁outil
▁correction
▁profitent
▁répandra
▁ɲɔsi
▁encourager
▁mangoya
▁adresser
▁lasaa
jabaala
▁Galiléen
▁ânesse
landi
ettes
▁adversaire
▁Kamalenkɔrɔ
attends
▁tra
▁jalakibali
▁frapp
▁obligations
▁retirant
▁délivrera
▁tuait
▁révolue
▁adversaires
▁rejoints
▁aisés
▁persécutés
▁renvoy
▁Galiléens
▁jalaba
▁jɛyara
▁Mɛlɛk
▁ronde
▁détails
▁orange
▁excuses
▁scell
▁connut
▁Nèn
▁saviez
▁familiales
▁jenyuan
▁boutons
▁survint
▁anglais
▁engrais
▁introduir
▁toucou
▁Rendez
▁humilité
▁kanubagaw
▁entourage
▁bolokɔ
▁yɔrɔkɔlɔsi
▁piqué
▁nafolotigiya
▁Hein
▁hé
▁glorifierai
▁consulté
▁nansara
agara
Nka
▁habiter
lutôt
dɔnnen
▁associés
▁flammes
▁soignants
▁verges
▁préparations
▁Bozos
▁rappellera
▁faiblesses
▁Quelque
▁ouvrage
▁vices
▁transformerai
fenw
▁denjuguya
▁étouffée
▁forgeronne
▁mɔɔnɔbɔlen
▁annexe
▁explication
▁puise
▁kolokuru
▁médit
▁nɛgɛtigi
▁parures
▁the
▁jasiran
▁roulé
▁Nikene
▁boirez
▁jɛnɛyakɛla
Celle
▁eunuque
▁Croyez
▁Bonsoir
▁faranfasilen
▁deviendront
▁grenouilles
▁miroirs
▁sabots
▁frontières
encens
▁écoutait
▁universelle
▁attribuer
▁mansin
donne
▁minnifɛn
▁comblés
espérer
▁dayɛlɛla
▁kunkankow
▁Nafoloko
▁halisa
▁bamana
▁daɲɛgafe
tirons
▁engendrer
▁cayali
▁Mariko
▁bɔnni
▁dankelen
▁cubes
▁désordres
▁préceptes
▁restez
▁médecins
▁culturels
▁persécutions
▁mêlé
▁voyager
▁Savoir
labana
iyɛli
▁dogoninw
▁observent
▁Malidenw
▁batiriw
▁internet
▁blesse
▁pourrions
▁agrément
▁Wulunin
▁nouer
▁marabolo
aribaga
▁insultes
▁tentes
▁palabres
▁expliqués
jira
▁sidabana
▁sho
goyi
▁portion
▁terrestres
▁mêler
▁ôte
▁bololankolonya
▁Layi
▁Partons
▁dessins
▁kumafɛnw
▁acacia
▁bobow
▁Jurum
▁abeilles
▁yanfan
▁utilité
▁accordera
njan
▁alako
toire
▁taamaden
▁gr
taratadon
▁consoler
▁adieux
▁enrichir
▁kɛlɛcɛ
▁Kanun
▁latigɛli
▁delinna
▁faranfasiya
▁Beau
▁fonctionn
▁lèvent
▁scandales
▁célestes
▁Dumunikɛla
▁goûté
▁sacrés
▁crottes
▁culturelles
▁montrerai
▁exerce
▁intention
voit
▁kulukan
▁chassent
▁mords
▁denjugu
▁portez
▁fatigues
▁articles
▁bénéficiera
▁passez
▁karilen
tobi
aison
▁Cent
▁chercherez
dingɛn
clin
▁Die
▁seginnan
▁croque
▁lianes
▁alliance
▁intéressé
▁dugulenw
▁sucre
▁déterminée
▁apprends
▁reposé
adapter
▁KA
hie
▁jeniyɔrɔ
incirconcision
▁trouveront
▁labour
▁trouvant
emportera
▁accueillant
yeux
▁tissus
Des
▁Fille
▁dɛmɛdon
▁hadamadenyako
▁alaɲɛsiranbagaw
▁nids
▁environnement
▁coronn
▁tantes
▁Cɛnin
hin
▁fé
▁mosquées
▁linges
▁approcher
▁sale
▁fagacogo
ourir
▁épousée
▁écureuil
tuaient
▁transformée
engager
▁Demisɛn
▁benba
▁économie
▁suivantes
▁commissions
haya
▁Bar
▁baaraba
▁festi
▁enseignes
ces
▁livrent
▁dusukunnako
▁kɔrɔbaya
veillant
▁sortiras
arrange
▁misiba
▁kunbereminɛ
▁dogoya
senu
▁revers
▁tueront
▁prolonge
▁assurée
vront
▁figures
acquier
▁misɛnya
▁dolomin
bolila
▁sariyasɛbɛn
▁patiente
▁ouverts
▁jugés
▁diminuer
▁aladeliw
▁musokɔrɔbaw
▁déchiré
▁tiyɛnna
iraw
fond
▁suraka
▁protections
▁classes
▁réflexions
▁vauriens
▁siɲɛna
▁fonctions
▁kojuguba
▁affres
▁vends
▁Jɔnw
▁accouchement
▁maasi
▁puni
▁convertir
▁passées
▁stupide
▁sirila
▁rassemblée
▁jarres
▁informée
▁sinnen
▁précise
▁komoden
▁kɔnɔrɔ
▁dakisɛ
EF
▁dunta
▁arrêtés
▁basé
▁taamasira
▁amenèrent
▁Utilise
▁Tomb
▁finna
zo
▁kiritigɛbaga
▁changera
▁normale
èse
▁bolibaa
▁tournée
▁ngɔn
efforce
goman
▁vaste
▁sonni
▁dannen
Senkelen
▁SEN
rou
▁munni
ssions
▁réponses
gardaient
▁Mis
▁Moul
▁Sages
▁occuper
▁retomber
mansarin
▁domine
bɔbaga
▁kunnango
▁désiré
▁désigner
▁multipli
▁kadi
▁consente
pérationnel
avançant
ssiez
▁voilé
interrogeait
▁duden
▁couches
▁saute
▁détourne
bé
▁kɔnin
▁pousses
▁rapproche
▁situations
▁poursuiv
▁innocent
honorer
rière
enke
▁desera
▁lamaa
▁Nou
▁sanna
▁discute
ction
▁finiss
▁Prédic
▁barques
▁communes
about
denmisɛnw
▁retrousse
▁solo
▁meen
▁Philippes
▁bolokɔrɔfɛn
dalan
▁jalakibaga
▁enseignera
▁chansons
▁kuntigiya
▁bonyali
▁Musokɔrɔba
▁qualités
ncɔn
tabilité
▁dɛmɛba
apprêt
citer
▁attachera
arroser
▁manifestée
▁baarakɛta
assurant
QUES
baganw
occupent
▁définir
sanin
▁gardée
▁répandue
Quelle
▁réside
▁revivr
sent
▁réparti
▁dures
geren
anu
▁irait
huit
apporte
▁Dna
▁habitude
▁bute
▁impôt
▁comptée
▁détruits
▁anti
▁consenti
lé
kɔnɔfɛn
▁dangaden
▁Dimi
lliez
▁Anh
▁sunɔgɔlen
▁regardes
▁récoltera
▁abuser
bagatɔw
▁faveurs
mɔgɔnin
▁ouvr
enveloppe
▁dansé
▁perce
▁Proc
shu
▁Viv
▁expose
▁fr
▁discuta
igi
▁cordes
▁latigɛlan
▁Visite
▁mortelle
▁nyuann
▁réussira
▁trahira
▁rivières
▁kɔmi
▁lois
▁blanchir
▁nisɔndiyako
▁murutigi
▁fɛnjugu
tiɲɛnenw
▁impotent
▁duru
▁regards
éré
▁ouvrira
▁tables
▁hyperonyme
▁sukaro
tigɛyɔrɔ
▁surpasse
▁enveloppé
▁dérob
▁transform
▁débuts
bɔla
cède
tés
▁retournera
ilalen
▁vaudra
adjoign
▁recueillir
▁Soro
▁ladumuni
▁distribue
▁lasiri
▁badenma
▁pantalons
▁bilama
▁Tim
isant
▁célébra
▁boucs
▁sirilan
▁mesur
lɔ
▁guette
▁formations
encen
ogo
tends
TIC
▁attire
▁lame
fɔlaw
▁komotigi
▁dame
▁fakan
nyan
▁assomme
▁wɔɔrɔna
▁fangama
ïn
▁cɛman
▁jouiss
▁sarala
▁Pu
▁sɛw
▁kɛbali
▁vivres
▁komon
▁inclu
kati
▁bolibato
mata
▁faliw
▁inaperçu
▁développe
▁vies
▁marifaw
▁spéciale
▁Naafigi
▁cassera
▁cemisen
▁longs
▁Had
▁convaincr
▁dévora
▁sɔrɔda
▁affranchis
▁faaba
▁sɔr
▁réclamera
▁plaisirs
▁banque
amaké
▁repouss
ɛɛ
▁arrivées
sisi
▁montagnes
▁châtiera
▁paniers
dafata
lafɛn
bla
▁impos
atɔ
▁amen
eke
▁Voi
▁degré
▁pre
ɔti
▁pénétr
▁Puisqu
ɛti
▁(3)
ɛnnen
▁Nyama
nè
▁formuler
▁nataba
ɔninba
ɛrɛda
▁finie
▁Baarakɛ
▁dagɛlɛn
▁kɛr
tɛgɛmagɛlɛn
▁fɔkun
▁sɛnɛkɛ
▁sigilenw
ret
▁Kotigi
▁entrée
▁saisie
▁charges
yɛlɛnna
▁ɲɛjirali
▁parlerai
▁bɔr
▁bouts
▁précéd
▁Port
uruk
établira
YA
ege
▁saurai
▁kɛlɛkuntigi
▁roula
▁Daba
iba
▁misirima
▁sumaw
▁remette
▁sɔrɔsira
ugufyɛ
▁ladamun
▁fɔr
ui
éjouissez
▁bɔlɔ
anyɛlɛma
▁syɛn
nburen
dinga
▁dépens
▁entrent
▁cases
▁samiya
▁dorme
eele
▁Sɔ
▁mulukul
▁Namat
▁nourritures
aba
gnée
▁Pri
jiginyɔrɔ
▁datte
coururent
▁voila
▁suivie
maa
▁film
▁remarqu
▁doma
▁déten
denmasa
▁bolonkɔni
▁tiɲɛnikɛla
▁fructifi
▁entres
▁Voul
finyɛ
▁yal
▁sauces
isation
▁ronge
▁touch
▁rougir
▁discutai
▁reprend
▁natuma
14
▁kɔnɔkuma
▁contenter
▁all
cueillit
▁encourage
▁incite
méliorer
cres
orgueilleux
▁tonkun
▁samiy
▁réuniss
▁Tch
▁ɲɛdimi
▁kafari
umukɛ
▁enduis
▁tilese
▁nɔkan
ot
cal
appelons
▁relâcha
épousa
ouloir
ɲɛnajɛ
▁cɛli
égal
▁carin
▁lise
ɔgɔ
sitôt
ttez
▁remarque
▁togodalamɔgɔ
▁caron
furakɛ
▁dispos
▁oubli
▁Mett
ɔw
5.000
oukho
▁Sunɔgɔ
▁af
▁walas
▁tasumama
▁commettr
▁fiɲɛn
▁partagea
ssaie
eme
▁jɛgɛden
▁répandi
▁soigne
▁van
▁garant
eli
fabali
▁enseveli
▁bat
▁surukub
▁muɲunn
▁Erɔdiy
▁circul
▁Kuntigi
▁seeginna
nts
▁sɛnsɛn
▁berger
▁Pi
▁égorge
goya
asi
▁Kɔlɔn
▁form
▁bamu
▁chairs
▁Dunu
▁approuv
▁kamanagan
19
▁affranchi
lɛn
mo
Kint
nsi
bato
▁rougi
▁jibɔ
▁dabiri
abaisse
▁pensai
▁madiya
▁mêl
▁défendr
▁suppos
soba
▁reprenai
▁devin
▁chargea
▁kansɔsɔ
envelopp
▁portera
▁Nɔ
▁mené
ulokanba
ido
dali
roba
▁dépêcha
▁terejugu
▁kɔtigɛ
arité
ɲɛsiranbagaw
▁réussisse
24
▁Tra
▁Tiɲɛni
tigɛra
▁commett
▁cɛko
▁sokɔnɔn
▁priv
éloigna
attach
▁fie
makɛ
wɛ
▁We
demeurent
itude
AL
gros
baarala
laɲɛsiranbagaw
▁malheureuse
Se
▁kɛnɛn
▁senbɔ
▁dlala
▁bɛk
▁Nɛgɛ
nɛti
▁lajigi
mɔna
ndoro
offr
▁crach
▁consist
eji
▁évit
▁kotigi
fasa
ias
▁pein
▁gratuit
▁tisse
▁détache
abaissé
rs
▁Filen
▁réussiss
▁demand
abri
kogɛlɛya
▁frémi
▁endur
agissai
▁marmites
▁égaré
dunn
ndonni
lance
▁jɛgɛnn
wulunin
▁minanw
rat
▁traîna
uillet
▁lakuru
▁bakoro
▁espér
▁dumuniyɔrɔ
▁réfléchi
akuru
▁soumettr
ète
▁dunna
▁collect
▁arrose
kuruw
▁ncɔ
denkɛ
▁Dɔnkili
▁distribu
nikɛla
▁adressé
nyinina
▁divise
▁redevi
▁kunɲɔgɔn
▁requis
taamacogo
adji
▁jolima
nɛnɛ
madi
▁piqu
▁appellera
ionne
pa
▁tuons
oles
Pas
ressèrent
▁vise
tilisez
▁badenya
▁famuya
sation
▁estim
▁serili
▁délivre
ONS
telier
▁cultiva
vivre
▁dessin
din
▁nyene
kasilen
▁rencontr
bukan
▁rassemblé
▁informé
▁Chei
lamini
nanw
▁Observ
article
ois
oubli
▁affront
duguma
dima
13)
kanuya
Faamawariminɛnaw
lisɛbɛn
▁endurci
▁regroup
▁Ph
11
egelen
pan
▁inférieur
▁grillé
chic
▁bâti
adilikan
▁fleur
▁rattrap
▁izini
▁repent
idi
non
nsin
saga
▁consomm
▁fracas
ê
▁abouti
kɛbali
ccueillant
agira
ɛw
dingɛ
com
lakari
libaliya
▁cenni
ɔɔsi
▁tenda
▁Kɛlɛkɛ
suruku
contre
laf
accorder
▁transgress
▁échou
forme
▁essentiel
iga
nyon
ankaran
yiri
nɲɛ
nke
▁soudain
ciyɛntabagaw
ulant
▁magar
koloko
valait
▁ɲu
cide
▁Yal
cou
amulette
enseignant
abandonne
fic
gun
▁télé
▁tɛnɛn
▁affermis
orme
▁maramafɛn
accus
▁dali
Dɔ
urine
▁masurunya
ntugan
excrément
oracle
ouvrier
Mɛlɛkɛw
épine
▁ladiri
▁fangatigi
gri
tête
femme
droit
bra
▁déserte
duloki
sariya
baarayɔrɔ
enfonça
peur
nyogonw
▁rougis
▁GA
miiri
▁Galasi
▁Tambour
gafe
duguba
▁laɲagali
embarqu
amuru
assa
allégresse
échelle
impression
extrémité
audace
guère
ablement
UE
inquiéter
▁coud
OCI
seul
▁plaint
hymne
baranin
lif
fiez
impact
interprétation
dɔrɔ
inquiéta
Assemblée
hippopotame
évaluation
escar
▁examine
anneau
Algérie
Chasseur
instruction
intelligent
humiliation
hériter
hiji
▁Pré
version
actuelle
enterrement
intendant
▁préfér
introduir
Hein
toucou
anglais
engrais
Rendez
humilité
atteigne
exécuter
entourage
▁détourna
berger
▁Kɔda
enfance
bouge
porogaramu
empressement
assied
Hatabili
Encore
exposer
sévère
structure
ardeur
Unhun
Salut
Nkɔsɔnnin
Demain
aspect
lɔgɔ
ouvrage
bɔrɛ
égren
combattants
extraordinaire
appartienne
Maganna
mɔɔnɔbɔ
angoisse
assurance
Isaïe
ocre
dulɔki
Yisa
gardien
souris
déjeuner
plaît
Sosso
important
bonheur
Maintenant
Quelqu
Suruku
Hɛ
pattes
Yala
propos
bamanankan
longtemps
voilà
propre
déjà
toujours
Yezu
Tile
vement
marmite
restes
yelema
Kuma
dɛrɛ
culturelles
duuru
▁gémi
pur
ɲaga
▁particip
merci
levez
kamalen
ŋɔni
▁anneau
▁désagréable
▁libéralité
▁cupide
supportable
hippotrague
▁dégrad
objectif
Avant
dankan
tɔɔrɔ
▁bienfaiteur
infra
mɔnɛ
Nari
▁Ngo
excise
▁misérable
▁dérivationnel
▁déçu
▁sottise
▁vernaculaire
▁bâtonnet
étions
érir
▁irréprochable
▁liquide
▁débauché
▁gaillard
▁nuisible
▁portable
▁Samaritain
▁incrédule
▁sécuritaire
▁mamelle
ignorai
▁disponible
▁menace
▁convoitise
▁naturelle
▁antibiotique
npogotigiw
▁braise
▁étonné
▁partenaire
▁vitamine
▁siècle
oublier
▁empêché
verse
▁païen
uth
▁obéissant
▁administrat
▁débord
▁extérieure
▁binnkannikɛla
▁nokanden
▁boutique
▁rebelle
kita
▁impuissant
▁ingrat
▁accusé
▁grammaticale
▁poli
▁convaincu
hi
sinamuso
entendait
Makan
kunbɛn
élimin
crut
▁autorisé
▁brûlante
▁obligation
élèvera
dilanna
ésormais
dites
▁Musokɔrɔ
essus
èguè
entendez
sariyaw
kɔrɔbɔ
initié
▁infidèle
onnaissez
▁ɲagamin
▁âgée
▁reprise
▁colport
▁Filip
▁garderai
errière
aliser
▁murutilen
▁voyageur
▁transf
yiriwali
▁astuce
▁fondation
▁sexuelle
Me
▁Filɛli
▁lakanabaga
▁encouru
▁coût
aptême
ate
▁hal
▁infirme
▁tonyogon
▁noyau
ravache
▁dégoût
idungɔ
tueur
▁exact
▁habitant
▁désemparé
omplot
runin
yal
tabiyo
épines
▁précédent
▁attaqué
▁géant
▁dérivé
ABA
▁coolo
enju
▁répété
minanw
vrier
▁quarant
▁Gɛrɛ
▁veillé
▁binbali
▁wel
▁fausse
▁politiki
écanisme
▁retenti
armite
celui
inistère
▁fondamental
▁protége
▁dɛsɛlen
ahanama
asse
ntroduction
kɔɲɔ
▁miliy
▁central
aaraɲɛ
avère
▁match
▁kiimɛ
▁produise
▁décapit
iouman
▁définitive
▁légère
▁lakuraya
▁licenc
▁énergique
▁Vrai
mmène
eresidan
▁pankuru
réparatifs
▁zuluy
▁hameau
limousso
▁cheveu
▁Ntomo
▁Noir
échauffe
▁pécher
Arimat
▁Zachar
▁récept
▁coiff
▁Gamali
ɛrɛtangacogo
ostau
vangile
Sûr
lû
▁arbitraire
▁nɛmɛnɛmɛ
ɛSl
Alphabétisation
Europe
UNESCO
allongèrent
ambassade
appauvri
assombri
autruche
bônô
cuillère
endurance
ikantigɛsɔnjigin
improviste
inconduite
inspecter
irrémédiable
lickr
maléfices
npɛti
oblation
Â
Égyptien
éducateur
éleusine
▁Arisitariki
▁Aristarque
▁Auparavant
▁Bulɔgutigi
▁Commerçant
▁Corinthiens
▁Culture
▁Cyrène
▁Céréales
▁Cérémonie
▁Dambélé
▁Dionkoundo
▁Dɛlibajɛ
▁Etchepare
▁Fadabanfada
▁Gennésaret
▁Gethsémani
▁Interroge
▁Irrémédiable
▁Jarisow
▁Jatanpila
▁Jonkundo
▁Kanoussakhambé
▁Kanusakhanbe
▁Kôntôrôn
▁MAKDAS
▁Matthieu
▁Mopti
▁Mountougoula
▁Mystère
▁Médecin
▁Méric
▁Nyolénya
▁Pamphylie
▁Panfili
▁Paraclet
▁Principe
▁Prévention
▁Remerciements
▁Sakhambé
▁Sakhanbe
▁Sansakhambé
▁Sansakhanbe
▁Soudain
▁Tagut
▁Tanpila
▁Technologie
▁Tisiki
▁Werner
▁Witamini
▁Yamanakounou
▁Zɛtisemani
▁acharné
▁aigre
▁américains
▁ancestrale
▁apaisée
▁architect
▁auditeurs
▁bakɔlɔnin
▁benjamine
▁bienfaisance
▁bienveillance
▁bénéfique
▁bêtise
▁chaloupe
▁cheptel
▁chevet
▁châtié
▁cohésion
▁coincé
▁combinaison
▁corroyeur
▁croupe
▁crèche
▁cuisina
▁curiosité
▁dandinant
▁daŋoŋ
▁dispositif
▁document
▁dysenterie
▁déception
▁déféquer
▁déploie
▁dépèce
▁dérangé
▁enracinés
▁envisagé
▁flageller
▁flenkolonci
▁foniseriya
▁gurupu
▁historique
▁homicide
▁hébreu
▁héraut
▁hérisson
▁immaculé
▁impatience
▁inachevé
▁incontournable
▁incorruptible
▁indemne
▁juridiction
▁kiyama
▁kɛɲɛkafɛkɛlɛ
▁lampadaire
▁lumiere
▁malfaisant
▁matériaux
▁maɲumatɔkan
▁mecreance
▁messianique
▁monocorde
▁mouillons
▁mouvette
▁murasɔgɔsɔgɔ
▁mésentente
▁ncɔrɔnin
▁npéri
▁néanmoins
▁oblige
▁obstrue
▁ombilical
▁pagode
▁paillasson
▁perruche
▁placèrent
▁plongé
▁postérieur
▁proconsul
▁préventif
▁psychique
▁pulvérise
▁pédagogue
▁raccourci
▁remboursé
▁remords
▁renfort
▁replaç
▁restriction
▁rivage
▁résonne
▁saveur
▁significatif
▁stratèges
▁structurant
▁succède
▁supériorité
▁susceptible
▁tchac
▁technologique
▁tenaillait
▁vaccins
▁valets
▁voudrez
▁véhicules
▁wikipédia
▁écarlate
▁échéant
▁épileptique
▁érection
▁Ɲɔgɔn
Attention
Attrapez
▁Batuta
▁FONDATION
▁Nyolenya
▁Règ
▁commandé
▁déconcentr
▁déguise
▁englouti
▁mendier
▁obtinrent
▁rentable
▁retomba
NKAN
impunité
incombe
outragé
qal
versaire
well
▁Circoncision
▁Karamoko
▁Koukou
▁Lystres
▁Organise
▁POUR
▁Yamanakunu
▁blâmable
▁bololanege
▁colonie
▁culbut
▁détestable
▁falekalama
▁impudemment
▁marâtre
▁piripiri
▁ruiné
▁rémunération
▁ɲwaan
▁Madani
▁Tièmoko
▁lahinɛ
▁ntuloma
▁ressortissant
▁thème
▁ambulant
▁copain
▁désastre
▁fanfaron
▁fourberie
▁grippe
▁koronbokari
BENKE
NYAMANTAN
▁Balikukalan
▁Bantamba
▁LAADA
▁grief
▁kunkankɔrɔfɔ
▁sɛrikili
▁wolowulan
BUNA
▁Hym
▁Konimba
▁Kunarɛ
▁confort
▁décédé
▁frere
▁kilomètres
▁relative
▁usuraire
▁hiérarchie
▁puruti
▁wutala
▁filenkaban
▁hôpitaux
▁style
▁verbaux
▁vigoureux
BALE
▁Baladjigui
▁remua
appartiens
▁Jenfa
▁diminué
▁musicien
▁taxes
▁Ɛrɛzɛnforo
▁kunmafalen
▁rentrons
▁terrier
▁Maneno
▁paludisme
▁raisin
▁Bantanba
▁Murudjan
▁Taamasyɛn
▁accablés
▁Dusukasi
▁Vérité
▁capitaine
▁enchanté
▁nsirasɛmɛ
▁abandonnât
▁accidents
▁kannajuruw
▁Herm
▁Tulogeren
assirent
▁bouteille
▁coussinet
▁Seereya
▁reprenez
Conduis
▁Arimati
▁Daɲɛgana
▁brosse
▁frein
▁mangions
▁mantonsɛrɛ
▁yɛrɛtangacogow
▁glorieux
▁renard
▁candidat
▁laharataga
▁sécheresse
dokotoro
▁fameux
▁résistance
▁birindi
▁damadɔnbali
▁fournaise
▁nkɔncɔrɔ
▁ɲaamu
▁Mondoblog
▁Nsaban
▁Tandou
▁acceptable
▁Bendugu
▁Sidibé
▁butiki
▁dérange
KOFI
▁enchaînés
▁Juge
▁Konfara
▁Sangafo
▁Examinez
mcg
▁FARA
▁modifié
▁clochette
▁kolatigɛjɛkulu
▁Kobɛɛdɔn
▁buvons
▁Akilasi
▁kafirilama
▁parasite
jatte
▁Kongossa
▁Sabbat
▁pollution
▁Waleɲuman
▁recevrez
▁bagannadon
▁kerecɛn
▁progressive
▁croissait
▁mourait
▁ɛrɛzɛnsɛnɛna
▁aromates
▁gendre
▁Kɔrɔnfɛ
▁jelikamalen
▁Kɔnkɔn
▁dandɔnbali
cada
▁ɲɛtaanci
▁silure
▁entravé
▁fiɲɛyara
▁fraternelle
▁passereaux
accompagnèrent
▁Npye
▁artiste
▁revele
▁gwere
▁nperibo
▁Lydda
▁accoururent
▁ligoté
▁massacr
▁noircir
▁valez
▁grève
▁malhonnêteté
▁Kuku
▁évitées
▁collègue
▁Jatigike
▁siibɔ
ITA
▁confus
▁foroki
▁dépendance
▁Continuez
▁Fasojama
▁scandaliser
▁flatterie
▁Kamma
▁binaakɛ
ILL
▁bananku
Argent
▁modeste
▁jɔbɔrɛnin
▁complique
▁préférence
▁axes
▁forontomugu
▁promptement
▁Yaala
▁nakɔforo
éclips
▁régulièrement
▁Sebagaya
▁Bop
▁Faamɛ
▁prédis
▁veaux
▁Moti
▁jɛgɛjalan
Crois
▁Bankaran
▁Kunkunba
▁DEUX
▁Malte
▁constitutionnel
▁luulu
▁yɛrɛkolonbaga
▁Tigɛ
AY
▁Sarati
▁lessive
▁Mesures
▁accusation
▁pondre
▁Fixa
▁lavage
▁dureté
▁ɲɛnɔrɔ
▁bamusobugu
▁démocratique
▁compétition
▁Kataba
▁sobres
▁jɛngɛnnen
▁supplémentaire
▁tɔɲɔnkɔ
▁chauffait
▁chacal
éteignit
▁ɲagari
▁ruade
▁courroie
▁bɛlɛkisɛ
omy
▁Sinaï
▁kuncɛdɔgɔya
▁nationalité
▁intr
▁yaalayaala
▁banansun
▁nɔnɔkɛnɛ
▁voudraient
▁VIII
▁communiqué
▁chrétienne
▁mutuelle
▁Buba
▁ressortait
▁rouleau
▁battaient
▁insuffisante
▁contraindre
▁plaindre
▁théâtre
▁hâta
▁lisse
▁procédure
▁repaire
▁lakodon
antiya
▁admir
▁Dusukun
▁Kounari
▁Jigisigi
▁transpirer
▁kamikili
▁légèrement
▁délay
▁Kirinni
▁jɔnkalate
▁définitivement
▁souper
▁couchèrent
▁cyber
▁yɛlɛnyɛlɛn
▁dungare
▁éduquée
▁cɛmisɛn
rɔkuma
▁darɔsama
▁croyait
▁ficelle
▁nyenabo
▁MIN
▁Shi
▁cueillette
▁ramenèrent
▁tigilamaa
ppe
▁kiimɛni
▁gosigosi
▁ɲinɛminɛ
iori
▁Gardez
▁espérez
inké
▁suspendre
▁jigiɲɔ
▁séparément
▁mɔnɛbɔ
▁fiyewu
▁repentent
▁musakawari
▁nasale
▁surveillent
▁Ɛɛ
▁Folo
▁plaisanter
▁basafan
▁conclure
▁logement
▁lahalaya
▁sariziyɛri
▁stock
▁skype
iganinkuru
▁Julbe
▁septembre
▁yuguba
▁reprennent
▁fangabonda
▁Nyamakala
▁troupeaux
▁wura
▁Yɛrɛma
▁saisissez
▁Kɔbɔ
▁nɔfɛkɛlɛ
acle
▁nyokala
▁dugutaga
▁gentil
▁nɛkun
▁Vivant
▁Djoloko
▁fileru
▁politikiko
▁Abada
▁Ansongo
▁tordit
▁morsure
arquois
▁Jason
▁crimin
▁renvoyer
▁urgent
▁basakili
gungurun
▁poursuivant
mɛd
▁sarakamisi
examen
▁Kènè
▁dormeur
▁numankurun
▁Cɛsiri
▁Sidibe
▁effectivement
▁transfigur
▁Matth
▁tɔndenw
▁Epaf
▁Binyɛ
▁karatɔ
▁fluid
▁kurukuru
▁sugusugu
▁engageons
▁Bɛnbaliya
▁Nyekoro
▁banbaganci
▁kɔrɔcaman
▁gémir
▁prêchons
▁boive
▁togobere
▁Sinton
▁divination
▁redoutez
▁mutaridikisɛ
▁bisimilayi
▁Divers
▁purifiez
▁enfuie
▁tranchée
▁fichtre
▁sérieusement
▁agiss
▁Njè
▁Siriman
▁faucher
assoira
▁dundunba
▁bɔgɔlama
▁médias
▁fendre
▁kisa
▁occupez
▁semait
▁Kongo
▁Kanubaga
▁dicte
▁nafasɔrɔbaara
▁hijira
faraw
▁sanctifier
▁Teriya
▁défaillir
▁répandre
▁jɔsɔ
▁Sirɛnika
▁succession
▁minisiri
▁réunissent
▁profaner
▁résidu
▁instruis
Angilɛ
▁Gatigi
▁reprirent
▁musala
▁coûtent
▁diyɛnnafɛnw
▁réfugiés
▁Somo
▁sangafo
inamu
▁namasɔn
▁regrouper
▁soonadonni
▁empans
▁géomanciens
▁énoncés
▁bref
▁associateurs
▁brûlures
▁interminables
▁magasins
▁robustes
▁rumeurs
▁citrons
▁cultivables
▁nafabɔli
▁réglementaires
▁bassin
▁vipères
▁Walifɛn
▁Salutations
▁maîtresse
▁procéder
▁Banta
▁rassemblement
▁mɔgɔlakalan
▁sanpɛrɛn
▁parcourir
▁Zoz
▁lycée
▁monstre
Don
▁volé
▁denmisenma
▁supprimer
▁conçut
▁piquant
▁raisonnement
▁nyagali
▁soucieux
▁malobali
▁kuuru
▁sédition
▁blanchit
▁ɲɔgɔ
ntilen
▁Directeur
▁metere
▁évalu
▁maj
Ouvre
▁violation
▁contenait
▁ɲɛdimin
efforcent
▁Nisongo
minin
▁détachement
▁bandit
▁inévitable
▁DILAN
▁Badònba
▁Bailleul
▁Bourama
▁Kuyate
▁abcès
▁adjectif
▁approfondi
▁conscient
▁dimension
▁haleine
▁palmiste
▁précieuse
▁Athènes
▁attitude
▁pompi
▁kunmayɛlɛma
▁Sɔgɔma
▁extrait
▁dorment
▁Toutefois
▁signaler
égarent
▁kunnyogon
▁nuire
▁hawuja
▁dalaje
▁bondir
▁projectile
▁Abd
▁Korotilu
▁allè
▁traduction
▁aimons
▁résolution
▁tunkara
▁patienter
▁2018
▁Traite
▁aladɔnbaliya
▁enfile
▁Kɔnɔmaya
▁kunnandiya
▁exceptionnelle
▁jabi
▁toxique
▁riant
▁Tandu
▁Hâte
▁kolobɔ
▁fables
▁investi
▁Dɔgɔya
▁ɲɛmajɔlen
▁makɔnɔcogo
▁kɛɲɛka
▁fracassera
▁mondiale
▁Jessé
▁dépouiller
▁Mamady
▁Azawadi
▁brin
▁tɔnɔmi
▁inscrit
▁tisser
amie
▁Sosi
moignage
▁NTIC
expérimentation
▁salaya
▁reconnaîtrez
▁ɲɔgɔnlajɛyɔrɔ
▁guérissent
▁racontait
▁desséché
▁negebɔ
▁réunies
pement
▁flanan
▁girinyara
▁farankan
▁publiquement
▁dakɔrɔbɔ
▁évidente
▁implique
▁laɲininen
▁mɔgɔnifin
▁recommencer
▁Koumba
▁logis
amusement
▁Kɔrɔtɔ
nner
▁bɛɛnnin
▁renseigner
▁détruisent
▁frappez
▁malodon
▁Voila
▁fatiguer
▁Cekorobaw
▁taamasiɲɛw
▁chauffeur
▁Tuure
▁senkelenw
▁Mɔgɔsɛbɛ
▁villa
▁wowo
igences
▁Autre
▁fallu
▁élections
▁brides
▁ɲɛɲinini
▁siriku
▁korobaya
▁corrompu
▁latɔmɔni
▁balayer
▁humiliée
▁Laissons
▁tombeaux
▁attendez
▁découvrirent
LAN
▁Jɔyɔrɔ
▁légumineuses
▁visibles
▁comprendrez
▁impies
▁appuyé
▁débiteurs
▁fendu
▁intimes
▁religieuses
▁végétales
▁centimes
▁fournitures
▁appropriés
▁égarer
▁entourent
entremise
▁consolés
▁escorté
abanden
▁commerciales
▁Sɛmɛ
▁multi
▁jolisara
mpire
▁suscité
arrivai
▁effrayés
▁terrasser
▁daro
nɔgɔla
▁waribɔ
▁juifs
▁minkenin
▁tournez
▁jyen
▁Maures
▁pleuv
inɛnin
▁Fem
▁sentait
▁Kɛnɛyako
▁cogne
▁sikɔlɔ
nsirin
▁instruction
▁Lib
▁mondial
▁sogolon
▁mourraient
▁carrière
▁restaur
demment
▁précipitent
▁finɲɛ
▁2001
▁associe
▁détruise
▁bobin
▁abrégé
▁kunnafonidilan
▁sugandili
▁transportent
▁namaji
▁intelligent
▁Binye
▁Maninkala
▁entraient
▁musofuru
▁opposition
▁faisiez
▁maɲɔ
▁Makari
▁maternité
▁épine
▁familiale
▁jaaka
Kènyè
▁labatoli
▁déroulée
▁Arafa
▁couraient
▁bolonkoninden
▁Filankafow
▁maakorobaw
▁discrimination
malheurs
▁malasa
hamed
▁retournerez
▁publié
épouserai
▁1928
▁rejettent
▁Abba
▁Aaron
▁épaisse
▁1921
▁Lutte
▁États
▁aritizan
▁kununniko
▁frotter
▁nɔna
▁hanche
▁priant
▁egare
▁cɛmannin
▁entretenir
▁déclaration
leurer
▁2550
▁CH
▁1994
▁tajurusara
▁tlara
▁1969
▁1988
miisi
▁cike
▁burufyɛ
▁senfe
▁hippopotames
▁personnages
▁critères
▁croyances
▁funestes
▁rapaces
▁linguistiques
▁approchés
▁Kamalenya
▁1930
▁cousins
▁libérés
▁torture
blé
▁bolokora
▁bolokobali
▁lafiyalen
▁accordez
attendais
▁labalan
▁Voyage
▁Pense
▁Pati
▁immole
▁Kuruwa
▁arajoso
▁senuman
▁intendant
▁fogon
▁bataillons
outoub
▁inanités
olonne
▁makɔnɔni
To
▁tangani
▁1500
▁soumises
jakabo
▁touchent
▁majeur
▁Salue
▁batara
▁jɛmɛ
▁Main
têtes
▁sɔnjugu
▁ohon
▁Kɔnɔdimin
▁attra
▁gelenya
▁sonner
▁étonnant
▁bagankulu
▁rince
▁demeurant
▁Bɛnkɛ
▁segenna
▁lagare
▁dununtigi
▁Renie
▁Soit
aralan
▁Chose
▁Abra
▁finale
▁ekoli
▁délégué
▁acceptez
EX
▁510
▁lɔgɔma
▁ɲɛnina
▁Nare
▁ngalama
▁Togoda
deli
▁animales
▁nassi
▁570
▁dangereuses
▁accusations
▁mɔgɔɲɛnatigɛ
▁liquides
▁débauchés
▁gaillards
▁irréprochables
▁nuisibles
▁portables
▁Sanba
▁altern
▁pleurent
▁ɲɛtugu
▁Iconium
▁escabeau
▁advienne
▁Cesse
▁Alger
▁écrasa
▁étage
▁pluma
▁honorable
▁Onze
▁Apportez
tiques
▁Itali
▁ciyɛntala
▁comparais
▁contestation
▁nenini
▁sonyalikɛlaw
▁provoqué
▁chanteras
▁souviens
rève
▁Kamis
▁reprends
▁pressée
▁veni
▁mètres
▁noyer
ANN
▁binɔgɔ
▁nafantan
▁achètera
▁respectable
▁sitan
▁robe
▁glu
▁biran
▁kunbaya
▁intentions
éloign
▁coupaient
▁pétriss
▁provisions
▁sanctifiés
▁fɛlɛfɛn
▁serrés
▁exaucés
kanta
▁Magana
▁bouches
tasuma
fagamu
▁ɲɔgɔnfɛ
▁postes
▁battus
kɔsɔnn
▁ɲɛsɔrɔ
▁tinyɛna
▁Jaki
ogonyiniyoro
▁épo
réconciliés
▁finyɛ
évoquer
▁signifier
▁Algérie
▁humiliation
▁teliman
▁révélée
▁Chasseur
▁sirabara
▁étranges
▁filennin
▁édité
▁nɔngɔnma
▁réveille
▁Lajɛya
▁instituer
▁voisines
▁rassuré
▁Galilekaw
▁weletuma
▁kunmasi
▁kojugukɛ
▁piller
▁ciɲɛ
▁unies
▁éloge
▁ét
▁Kungosogo
▁barikada
▁denbatigiw
▁Kirina
▁Rab
▁nɛgɛsow
▁nɔɔrɔba
gardais
▁côtes
▁Arabu
▁entraves
▁Silame
nyege
▁dabilali
▁infirmes
▁Seuls
▁hin
▁attaque
▁sachet
▁yɛlɛli
▁yiriwalifɛɛrɛ
▁exception
▁gardera
▁nyani
▁commercialisa
▁réalisés
▁dɛsɛbagatɔ
▁Mariti
▁kɛlɛcɛw
▁ncininnin
▁Suba
▁ressusciterai
▁appelez
▁dérobé
▁adaptée
▁désirent
▁formés
▁bosse
▁inquiété
▁dɛmɛnjɛkulu
▁Forgeron
▁estomac
▁menez
▁Paix
▁respirer
▁Seko
▁manyaka
▁Parti
▁indéfinis
▁proverbes
▁spécifiques
▁ébranlée
▁rares
▁nui
▁courantes
▁machines
▁seereyara
▁trompent
▁identifié
mɔsi
▁jumɛ
▁maramafɛntigi
▁bouger
▁nyumanba
▁disiez
▁Hum
erclus
abandonna
▁Mɔri
▁traversait
▁porteront
▁comptés
▁commencera
fiyen
▁Binni
▁ocre
▁rejoign
udrait
▁Lamɛ
▁SESEYɛLɛSI
▁waribon
▁neuves
▁tribus
▁yasa
▁sirabada
▁jettera
▁cruche
jeli
▁sɛwalen
▁ɲɛnɛma
▁wulicogo
▁fatigués
▁brisés
▁devrais
▁bangera
laman
ph
▁éprouvés
▁Fɛɛrɛw
▁tarder
▁Homme
▁kogoninkuru
▁motow
▁tɛnɛmak
▁gɛlɛyara
▁folles
▁jeliya
▁avertiss
▁kuraya
exciter
▁grimpé
▁sociales
▁profondes
▁partirons
▁fankelen
▁koji
▁tristes
▁billets
gissez
▁métiers
▁chargées
▁Questions
▁bolokɔnin
▁sugandilen
▁pelle
▁coupées
▁égorger
▁prolonger
▁accoucher
▁rapporteurs
▁baliko
▁connues
sugubɛɛ
▁Sine
▁potenti
▁condamnés
invite
▁mango
ution
▁tiyɛnnen
▁dominer
▁rapprocher
▁appuis
▁islam
▁nugulen
▁Ɲaman
▁correct
▁obligés
▁poings
▁préciser
▁Sibila
▁jurumutɔ
▁courante
feu
▁personnels
▁attest
▁couverts
▁litre
▁posées
▁mor
▁mafɔli
▁Mɔgɔjugu
▁déposes
isible
▁assigner
▁parfaits
▁ladiyalifɛ
▁dénoncer
▁arcs
▁coupant
▁campagnes
▁cordonniers
▁communications
▁bienvenus
▁Naasa
▁jɔcogo
▁najinin
▁aidés
▁dangereuse
▁Mie
▁ɲɛfa
▁Misiraka
épuiser
jɛnin
▁fentigiba
▁Kasi
▁bleue
écriant
▁belebelebaw
apprécier
▁assemblées
▁musomanw
▁susa
▁destinées
▁temples
▁dictionnaires
▁décisions
▁wulika
▁réaction
▁kunnafonisɛbɛn
▁solides
▁permise
▁Hor
▁profère
▁Funun
▁amicale
▁Karaba
▁abondance
▁saurez
▁méchantes
▁célébré
▁Asie
▁associations
▁senuyalen
▁Recherche
▁perdues
menèrent
▁piles
▁doctrines
▁démoniaques
▁muɲuni
▁sanctifie
nkenin
▁hen
▁takurun
▁Deli
▁amies
▁mars
attestation
▁nafoloko
▁guériss
farsi
▁actuelle
▁troubles
▁woroko
umu
▁Kami
▁Kunu
▁lajɛra
▁dépensera
▁arrête
▁amères
▁konyuman
▁informera
urant
▁ignorance
▁couler
▁Geta
▁kantige
▁kumabaw
▁intérieure
▁wu
▁emménage
▁Gadon
▁surprenant
sh
▁ajout
▁dégaina
▁persiste
▁ciyɛntabaga
▁hériter
bolon
kɔrɔdon
▁dirigé
inclinent
▁Ekar
▁mesuré
▁pouvais
sobaw
affronter
ers
▁Yen
▁terrasses
▁misiriw
▁abordé
▁seerejugu
▁wati
▁2012)
▁battue
▁lɛrɛ
▁Ge
▁ɲɔgɔnkanu
onzon
▁Dugutila
▁nɔkɔ
▁politiques
▁emportés
anukisɛ
▁assistance
▁achetés
cɛn
▁séparée
dunan
▁jiritu
ivière
▁bonyara
▁ɲagalilen
▁administration
▁kanunen
▁partaient
▁secou
accusent
▁Sinay
eindre
▁huiles
ninnu
▁magoɲɛfɛn
▁rats
▁vertus
jɛlenya
▁achat
▁glorifiés
▁jolies
▁lasiranbaga
▁connaîtra
▁atelier
▁mangerez
▁Venez
▁convers
▁regroupe
▁Fu
▁ho
▁grille
▁papas
▁Lase
▁piquer
AMA
▁Tɔn
▁priver
▁kurunba
▁périss
▁zan
▁manik
▁ennuie
ssèrent
▁talion
▁dévorer
▁résistante
▁larges
▁pirogues
épargner
▁comportements
▁esclavage
▁intéresse
▁gɛlɛnya
▁kɔnɔmaw
▁lavés
▁dagaba
▁fuyi
▁augmente
▁basigiyɔrɔ
▁rasée
▁tigɛyɔrɔ
▁galaba
▁sigikun
uvé
kɛtu
▁garantie
ɲɔgɔnma
▁pay
cott
▁dunufɔ
▁condamner
▁convoqué
▁maliden
esclaves
▁sigilan
▁insu
▁marient
▁kumalankolon
ef
▁méchancetés
▁malédictions
▁pilons
▁kutu
▁implore
gɛnden
agissent
▁misɛnw
▁constate
bɛnbɛn
▁finies
▁cachés
▁Muɲun
emploie
▁amère
▁livr
▁Sigiɲɔgɔn
▁tɛmɛnsira
▁agriculture
▁Gun
ɛnnan
▁pond
▁kungokolon
▁prétends
▁détourner
Jeune
▁clan
▁dogon
alisation
▁Koni
ologie
▁Haa
▁ehe
▁Alasira
▁kwa
imibagatɔ
▁souvien
imaginer
▁défie
▁tilebinyanfan
tuèrent
▁ntolatanna
nkan
▁furuɲ
▁apportés
▁respective
duguw
▁denfa
▁ɲinikan
▁comptent
▁raté
ner
▁nijuguya
sahobila
frire
▁Bosoli
▁verses
▁lasigiden
écrier
manin
avancer
▁écriture
▁kunma
▁char
agissa
entrent
étachez
autoris
ɛkuluba
nasi
▁kunnawolok
indimi
▁sers
▁cekala
apprêta
▁pardonnera
▁Nɛ
▁prophétiser
▁brûlée
▁mourante
abarika
▁rentrée
▁sɛlɛd
idole
▁flanin
▁sirafara
▁boubous
▁museau
▁Ad
kɛn
▁Cikɛla
int
▁laadalako
▁ɛrɛzɛnd
▁ɲɛkun
▁sentiers
▁agrée
▁assur
▁yaalala
▁ressenti
farinya
▁pareilles
▁vraies
▁sabalilen
▁marchande
▁interdis
▁étendue
▁bénéficie
▁IN
ouvr
▁digir
▁sɛbɛw
▁sollicit
▁namu
▁inform
kɛkɛnɛ
▁namaya
entretenai
▁dɔgɔyalen
▁sunguruntigɛ
▁Sé
▁kumatɔ
ps
nyi
musa
dunna
▁neufs
▁réfléchisse
▁banani
▁musoma
▁racont
▁Présent
woyo
▁mariées
▁jimafɛn
nasigi
▁Saniya
Al
▁irai
organisent
sirilen
▁ceint
▁fâcher
ɔrɔkɛ
▁bir
▁signalé
▁buranna
normalement
rains
▁Dabali
▁Kay
adresses
anges
▁transgresser
▁Etat
ntérieurement
flɛ
▁limiter
▁Yo
▁Dakan
assembla
▁suran
yɛ
▁Pro
▁déserts
▁dɔncogo
ouviez
écoule
▁Pass
▁sautera
▁pote
▁jigitigɛ
▁kanga
▁hurle
ste
▁étal
▁Lit
▁fui
berekuru
lisi
▁Gundo
▁frappera
▁Alikaa
attarde
iwik
▁concurrence
▁jur
▁nisɔn
éconciliation
del
▁tɔɔrɔlen
▁naissances
▁dévor
écompense
▁Ici
iyɔn
▁presser
▁sépar
▁sagokɛl
▁récompenses
▁Mɔgɔkɔrɔ
▁crié
▁tuée
▁dage
▁raisonn
▁dora
▁banbaliw
▁aies
▁crocodiles
▁cultiv
▁tirée
▁leurre
▁jusigi
yan
▁binn
▁cogoyaw
▁recouvrir
iti
▁éleva
▁tulonk
▁deviendrai
▁Réalis
oto
▁consommat
▁nacogo
▁minɛli
▁ganni
▁iront
▁pal
ameut
sumana
▁renier
tɔgɔlaka
▁gundow
▁yiriwalen
▁Ngam
▁possèdes
▁fente
kɛbaliya
pérant
▁étale
▁Tinba
okɔrɔnin
▁Yiriwali
▁contraires
hyènes
▁privée
▁reviendrai
...)
expira
habit
▁kologɛlɛn
▁kulokan
créant
rouvez
rata
ngues
Priez
▁Sɛt
▁tressailli
▁mɔgɔkunntan
▁blâme
▁poteau
▁vari
▁doso
anni
▁200.
▁seereyabaga
▁désigna
▁défunts
▁kɔrɔnfɛmɔgɔ
▁batte
▁entoure
▁cach
épousez
▁fauche
ts
▁ɲɛbɔ
▁Remplis
▁senkala
oma
▁bokɛ
,...)
▁dumunikɛla
▁disposer
▁arrêtera
▁varans
dah
soro
▁attrapée
nk
assoie
▁Église
▁jatelen
▁cho
▁laissés
▁réconforte
▁Kelenya
laba
nkɔrɔla
▁doniba
▁française
mannin
nɔnɔ
▁gɛrɛn
▁faman
▁ras
▁taji
uya
▁kunkelen
▁bamun
▁ordonn
▁kanulen
▁lamɔden
▁frappée
▁emparé
oulever
▁rencontrée
▁peines
▁croiron
▁voyages
▁égorgea
ortez
▁confess
▁sûrs
▁ɲɛko
inisiri
Obana
▁taare
▁arme
ngɔn
idité
▁recherch
▁Ben
évente
▁témoignages
atɔrɔn
bɔgɔ
▁sales
suivait
unit
▁sarcle
tari
▁lataama
▁relâch
▁exprim
ligne
aninkɔnɔ
nkun
▁récompenser
▁dununba
tɔnw
▁tournera
▁réchauffe
▁marayɔrɔ
▁swa
▁entraîne
▁sabana
madenw
ienne
▁dépendant
évent
▁Was
▁mangés
the
najugu
▁nogo
istes
apercevoir
▁namasa
▁aspir
criait
donw
ele
▁welebaga
▁referma
ouvrent
▁pitoyable
annule
buruye
▁kɔrɔman
▁tuman
▁waleyalen
bɔyɔrɔ
▁dibara
neaux
tournait
▁za
▁soma
▁joginn
▁banafura
yo
hɛ
▁indirecte
ranmuso
▁garis
▁sagola
▁manifest
Telle
▁ventres
▁découpe
▁exposa
▁souhaiter
ntigi
former
▁noue
▁forobaya
▁Mont
▁misɛnnin
▁respire
▁fanani
kete
donnen
▁lux
id
▁warimisɛnko
▁ressent
▁binbaliy
▁sanfɛfɛn
rani
atha
▁Ɲan
can
▁posta
camantigi
ouche
▁Entr
aranke
▁bolonkɔnin
sigili
ɔngɔko
▁emmena
▁verrai
▁abandonn
tebe
▁tapi
▁mobilis
▁reli
akɔsi
▁nourriss
▁née
▁parte
▁procur
jirali
appelez
▁conserve
ulé
▁nɔn
▁diman
▁com
▁kungowulu
▁montrera
▁opéra
▁tenten
écrasera
▁décharg
kanko
écrive
▁conclue
▁mɔsɔn
▁reçus
gana
ptes
▁empêch
▁donbaa
▁consult
▁essai
▁Pars
kar
▁weleweleda
▁soulager
étala
▁Kuna
▁dépassa
IL
▁mesurera
▁rétorqu
▁maintien
ortant
▁ad
▁cage
▁gar
mansarins
▁eff
▁éveillé
▁démontr
▁denko
▁reproch
▁cahi
ché
▁écrive
DU
likan
▁pou
▁kanko
▁Lakɔli
▁évente
ɔɔrɔ
urusi
▁kalanbaga
kankow
▁kololen
▁Jiginn
▁ngɔ
▁banako
▁her
▁souleva
AD
▁croira
yɔrɔko
oli
fɔsɔn
▁hakilisigi
▁supplie
▁délaisse
▁longe
manw
▁kolen
rès
▁ressou
▁kelenkelen
korow
▁minɛbaga
yin
onore
▁écart
▁aspire
▁creus
habite
▁considéra
▁bese
bule
iniko
doncogo
ɔlɔ
hun
voyez
fle
▁confessa
▁Soli
nces
▁sarcl
▁apo
Tiens
▁recour
▁bénie
ama
fer
prendront
▁install
abu
▁actif
▁fɔtɔ
▁sotaa
viens
aménage
yira
ongo
ɛni
▁bisimilata
unissent
vons
songo
nçaient
▁marqu
sɛgɛ
▁Woyima
▁exécut
vier
▁fuy
ɔli
▁bolodali
dont
▁mainte
▁yɛrɛlafasa
▁lames
nakun
tique
malen
▁Kon
▁shɔ
▁cɛfara
▁Buru
▁Jelikɛ
▁convainc
▁discerne
▁batt
ussent
▁yada
▁assure
dite
▁fuma
soit
kunntanw
mɔgɔba
▁saburɔ
gafew
uyali
TE
▁désirai
▁demisɛnnin
masama
▁entour
▁délic
▁Tiɲɛfɔ
rɔpu
▁harpon
ours
▁mɔg
maakɔrɔbaw
▁dagaw
▁sebaga
▁croir
▁kundon
▁retrouvera
▁comprom
um
▁Mɛn
portons
▁risqu
LO
▁vot
amment
bolow
"?
▁Kodɔn
▁goniyan
▁eû
▁kulol
▁assomm
ry
▁cɛfɔ
entretien
▁déroba
▁balili
▁Duba
dɔnkili
yelenen
▁sindi
▁jogojugu
sinin
▁2002
▁manqua
▁descende
05)
▁tɔɲɔli
ere
▁Tien
her
▁montai
uts
abat
iji
anɛgɛ
▁reniera
▁feerela
▁gén
▁définis
▁cema
▁Koko
irais
▁Yel
▁invente
ʃu
donyɔrɔ
abara
oint
ède
geance
jiw
▁banta
uiller
entrerai
ulakurun
ram
approchera
▁remett
▁SETɛ
▁Sema
tuluma
v
▁kɔnɔnafili
makow
▁connaissai
ayi
▁Kin
▁avoue
lennen
▁forola
vé
▁haï
▁Balocogo
anbaatɔ
▁éclata
sez
▁Dio
▁adjur
▁Hak
sabana
yɛlɛmali
07
lenin
▁kɛrɛla
fagala
ɲɛna
▁mɔgɔɲuman
▁serv
▁Tir
▁gin
kɔnɔdon
▁convi
▁kɛlɛbaga
unes
farakuru
nvitation
▁produir
▁apprêt
▁jeûn
ifie
umuni
▁chi
sarada
▁Zank
ends
▁dél
teurs
▁tungan
▁ganseli
och
▁jaasili
▁compar
▁rassasia
▁aperçoive
▁Aide
▁nkɔsɔn
▁march
donbali
ous
▁boliko
▁entam
▁1925
▁affirma
▁Takisini
▁marchand
▁secrète
barika
flan
▁Wele
▁raisonne
▁casserai
▁bajida
▁estima
▁boucha
▁repoussa
osque
kɔri
yakura
nçant
olé
▁mentale
aki
▁muni
▁tape
▁cob
fagali
nburu
ninkumala
▁interdise
▁condamne
mada
▁affaibli
sunbalas
▁mé
▁Boso
mposition
▁envoyée
tar
▁ɲɔko
▁siégea
▁Nkalontigɛ
tenez
▁damatɛmɛ
▁affermiss
▁Siraba
▁mɔɲɔn
▁cessa
sɔnni
sme
▁déplacé
kelenya
monter
▁yoba
▁kunfa
kiri
porté
dege
ogonin
▁remplira
juguba
▁princip
▁1983
▁hivernal
▁fɔɲɔgɔn
▁dénoncé
▁disput
sser
▁1933
mabɔ
hakili
▁noué
isser
▁!....
▁Gɛrɛsi
libagaw
kɛnɛw
▁supporterai
▁Sariy
▁goutt
abadilan
▁1985
aines
▁fangako
▁nadon
▁rev
▁Murut
▁fich
▁pourchasse
caya
quant
▁2045
▁kafe
▁divulgu
▁nettoy
nɛkala
▁tɔɲɔn
▁raill
▁kunntan
manderez
▁Alaɲɛsiran
▁accuse
Ten
▁captur
jugukɛ
▁aidera
vraie
▁réveil
▁désobéiss
▁kakɔrɔ
banaw
place
▁saraw
allumer
vin
opération
▁lokoli
battu
▁empare
sonye
iyusi
enfer
▁plume
Te
▁consume
ntara
▁siyɛn
balo
▁exécuter
aali
▁souvi
liez
ɛbɛn
ngoya
▁sunguru
▁utilisa
vienne
paro
▁partagé
▁efface
lafili
osera
▁écriv
▁correcte
pprenant
▁Binyekun
▁éclatant
▁ɲimin
▁tremblant
▁jikulu
▁sɛnɛta
▁félicite
▁adapt
▁retournerai
▁occup
▁kunkun
trices
jiba
▁fl
excuse
▁dénonce
▁assigne
▁averti
▁moissonne
feerela
embrass
▁balemak
baarakɛlaw
yakuma
▁surukukun
gen
bati
▁sanud
bayasa
▁Yiriwa
▁épuis
co
▁Kisi
kabila
ologue
média
umɛn
indigent
délit
jata
▁planifi
▁Kɔmɔ
▁ɲumankɛla
scription
▁relevé
▁dagar
â
madam
ôte
▁détourn
▁wul
siran
▁Bèn
vrez
inquiét
hat
▁apprécié
enseigne
nikɛlaba
nqué
embarras
impose
▁nutritionnel
fs
▁habituel
ifiée
▁Ex
outrage
▁croisé
▁devança
▁Kumu
▁bafou
ɔfɛn
ɔgɔma
entendra
prit
nationale
gundow
caman
ça
▁laboure
▁ciyɛnta
▁bavard
apôtre
commission
eff
alentour
ivité
▁repar
pastoral
ɔsɔnbali
▁déport
industrie
invita
habiller
▁élimin
EN
kuluba
▁Yɛlɛn
▁récolt
baraka
▁kanubaga
▁jujɔ
▁institue
▁silatunu
culaire
angle
onstruire
▁bereminɛ
dɔnni
assemble
▁madɛmɛ
.53
filé
tand
▁débrouille
ip
▁sévi
mpossible
▁hɔrɔnkɛ
importune
armes
▁provoqu
arriva
▁Magan
▁ɛndisirɛli
endure
gemme
interpelle
enlèvera
▁coule
nternationale
▁barikatigi
plein
▁lecteur
intervention
lasurunya
Artémis
araignée
autonomie
avale
incrédulité
interprète
moko
arrosoir
admiration
entreprendre
Enlevez
aranmogo
égué
enchaîne
évidence
étroit
ignorant
améliore
fois
▁additi
got
ɲinɛ
▁confectionn
essuy
▁Faamu
Avènement
émission
noko
entrave
équipe
affront
impiété
Information
prodige
gakaranɛ
▁épargn
ziirin
oyer
jube
JIGI
coupe
tiriba
égorgea
exprim
observe
▁messag
syɛ
maasa
écrasa
mètres
Iconium
escabeau
Alger
Apportez
honorable
Voul
advienne
multi
dewu
adorer
étranges
Itali
Remplis
accusation
emmener
fransɛ
équivalent
attrapa
▁recouvra
▁écarté
Founya
étage
Aidez
▁bagɛn
siirin
Mɔri
abîme
encourager
inconnu
Kelen
intégr
▁entass
exagér
▁touffu
rè
Sept
Sɔɔni
affirme
Seul
établis
obéir
Fiɲɛ
obten
noms
Glo
vite
Apollos
Hyène
étrangère
opinion
sauvée
Lièvre
Rends
riw
dame
institution
▁approché
arrogant
individu
Faites
élimination
descendra
exposé
▁libéré
Quoi
jambe
Wulaaju
tentation
politique
Conseil
Antioche
Chef
tubabukan
CFA
grandir
attention
konkon
▁engagé
Diɲɛ
yeleke
certainement
12
puissant
kɔngɔ
Moyizi
balimamuso
douze
chasseurs
lakanani
Lorsque
Personne
Faamanjè
maladie
chambre
▁ʃyɛn
habitants
foyer
aliments
village
Gara
Katugu
kɔkɔ
Wulu
Bamako
▁délivré
misali
cercle
sungurun
peine
élever
cɛtigɛ
pourtant
teriya
Mère
sachez
llusion
▁éclairer
danma
▁pluri
assoi
retour
▁lapid
emmène
▁Mich
VI
▁proclame
▁député
▁fainéant
▁indispensable
▁populaire
▁prédestiné
▁prédicateur
▁égorgé
▁angoissé
dalilu
▁moissonneur
Syɛ
▁accroché
▁greffé
▁renouvel
▁réveill
▁portique
▁Tribu
emparer
tonso
▁mendiant
Car
dibi
▁régal
nyaga
▁Entend
▁muraille
très
Sisan
beaucoup
▁intégré
arre
▁ulcère
toujourspassage
▁Principauté
▁estropié
▁perplexe
▁coopérative
▁totem
foyi
▁coopérateur
jatigila
▁humble
▁avertisseur
▁courge
yakelen
▁Kirin
utilisent
▁admis
▁vague
▁bataillon
▁critère
▁croyance
▁rapace
▁funeste
▁linguistique
▁blogueur
dusu
▁Adieu
▁malfaiteur
▁superstition
▁illicite
annexe
▁vulnérable
▁colombe
▁humanitaire
mɔri
llion
▁dîme
daminɛ
▁téléphonique
▁Blanc
▁nœud
▁largesse
▁financier
▁industrielle
▁clef
appartenan
▁warid
▁guidé
▁moustique
▁concour
▁cherchera
▁condiment
▁naturel
dieux
▁soldat
▁condoléance
▁Fɔkabɛnna
usala
étonnant
ugamasakɔrɔ
▁clou
▁africaine
ngoro
▁Filankafo
hume
dilala
▁jirisunba
uane
sanji
entendaient
approchait
envoi
ɲɛkɔrɔ
enivre
▁précédente
Jɛ
emeurez
wolonwula
intéresser
olonkon
étend
▁bolisɔnsogo
boso
▁suffis
dabila
▁siginyogon
▁personnage
▁Sokɛ
▁Bolokoden
▁griotte
▁croiri
▁navig
éléments
entreront
apprends
▁fondamentale
▁sinsinnan
▁faamawariminɛ
Passe
imposer
jeux
▁perç
amatasɛgɛw
qués
▁kuday
nutile
▁tournoy
ompatissant
▁quitt
▁piquet
▁yɛrɛkan
appropri
pécifique
nseignement
▁branch
▁total
sclaves
▁pla
alanba
aga
farako
ENDA
unis
▁effac
▁signifi
▁poign
kere
▁ɲamɔgɔ
▁moral
outumes
rête
▁appétissant
▁infligé
▁récompensé
▁verbal
▁honoré
▁félicit
▁vante
oncernant
indign
▁éternel
▁séduit
envers
▁dissimul
dougou
ɔyɔ
▁dantɛmɛ
▁persévér
▁retir
▁Béré
roubles
▁miraculeu
▁Futa
ncouragez
▁Isirayɛliden
▁révolte
oppose
▁intens
▁molle
zɛri
▁bloc
lète
▁bolodalen
▁désespéré
▁guet
▁Dingɛ
utaridikisɛ
▁croie
injila
brication
dabali
▁successi
dɔlɔ
▁fondamenta
▁affecte
écoutent
enlèverai
▁Pirisi
émerveill
▁laafu
labaanci
▁mutuel
▁ficel
▁interrogé
▁paralys
EDEY
▁périodique
▁royaut
▁chauffa
▁BƐ
éteign
▁alalandi
poyi
▁nkalontigɛ
▁Apporte
ililatilennan
▁Kati
Hɔn
rtiniquais
▁série
ègre
▁deveni
▁dɛɛndɛɛn
sous
▁cousin
pture
EMENT
▁rapi
▁express
▁réclama
▁Poroz
rofession
lénitude
▁Alamisa
ériode
▁capita
▁Dakaro
▁terroris
ɔncɔrɔ
▁constitution
rbitre
ɔkulɔ
sɛgɛsɛgɛl
charis
▁Zorobab
▁sécuri
▁agricult
empris
brité
▁surabond
nèbre
▁Lanb
▁résult
▁vigilan
▁Douentza
▁pɔnp
ɔmiji
▁Funteni
▁Ndjé
▁néfaste
▁prématuré
▁spontané
▁ébréché
Aminadab
BLE
CTMS
Hameau
Hérodiade
Soulève
Umra
`
acceptèrent
accouple
affadir
agglutin
agroalimentaire
autochtone
avilissement
aü
entêtement
erorisimu
extirp
humecter
hypertension
inauguration
inconvénient
incorruptibilité
intervalle
intraitable
omadaire
prostitution
soufflé
yahudiyaw
épiscope
‰
▁Actuellement
▁Anglais
▁Apolɔsi
▁Apparition
▁Avertissement
▁Banginbagaw
▁Barbare
▁Benjamin
▁Burɛmu
▁Bénena
▁Bɛtileyɛmu
▁Chemin
▁Chretiens
▁Colossiens
▁Communication
▁Datétemenkola
▁Dekapɔli
▁Diabaté
▁Duwanza
▁Décapole
▁Délibadiè
▁Dépense
▁Enseigner
▁Etranger
▁Fitiriwale
▁Fondamentale
▁Gabriel
▁Galatie
▁Gaïus
▁Ginbaya
▁Goliath
▁Généralement
▁Géraséniens
▁Gɔligota
▁HADAMADENYA
▁Hadiala
▁Hérodiens
▁Indulgent
▁Intérimaire
▁Jaïre
▁Jokɔɔnin
▁Kanbasiga
▁Kerecɛn
▁Kokribozo
▁Kréyol
▁KƆNƆ
▁Lassinè
▁Martinique
▁Naissance
▁Nianzon
▁Pentecôte
▁Phénicie
▁Promesse
▁Prophétie
▁Pɛrize
▁Recommandations
▁Resurrection
▁Révélation
▁Sahel
▁Salathiel
▁Samaniana
▁Sangafè
▁Silvain
▁Soutadounou
▁Sumbala
▁Tanbura
▁Tessalit
▁Tibériade
▁Torofim
▁Tourne
▁Transjordane
▁Trophime
▁Venue
▁Youwarou
▁Yuwaru
▁Yéréma
▁ablutions
▁applicable
▁artistique
▁attroupement
▁bandoulière
▁baïonnette
▁bijoutiers
▁bilharziose
▁blague
▁bredouille
▁burufiyɛ
▁caleçon
▁cambriol
▁caravane
▁cavalerie
▁charlatans
▁charognard
▁christianisme
▁chœur
▁circoncit
▁commandant
▁compensation
▁compliquée
▁concentré
▁concernait
▁consultatif
▁corruptible
▁crapule
▁croyions
▁culpabilité
▁discorde
▁dispersèrent
▁dormant
▁douloureuse
▁drachme
▁dugusɛjɛ
▁défriché
▁déféqua
▁déjeuné
▁démangeaisons
▁démonstration
▁désolation
▁dévergondage
▁ekipu
▁embelli
▁endetté
▁endutigenankuru
▁eprouver
▁escroc
▁espagnol
▁exercé
▁festoyer
▁fissures
▁flagrant
▁fugunyari
▁gawulɔ
▁gibet
▁glouton
▁gravillon
▁géniteur
▁gɔtɛ
▁gɛrɛkikan
▁hebdomadaire
▁hidaya
▁hiérarchique
▁hébraïque
▁inconvenant
▁infatigable
▁infidélité
▁interprété
▁judaïs
▁judiciaire
▁jɛnɛntuban
▁kolobokalaba
▁kulokulo
▁kulɛlɛ
▁kumukɔrɔseri
▁kɛnyɛrɛye
▁limogobarafa
▁législatifs
▁lɛnpɛ
▁maamasine
▁malnutris
▁maturité
▁mourrons
▁moustache
▁muezzin
▁myrrhe
▁médicinales
▁naamutigilama
▁narokefen
▁naufrage
▁nettoie
▁nkaranga
▁nudité
▁nyamakɔrɔseri
▁nyɔngiri
▁pertinente
▁pesticides
▁phase
▁picorer
▁pistolet
▁poquets
▁potagère
▁profané
▁prosternèrent
▁protectrice
▁province
▁prudence
▁précoce
▁préfixes
▁prétentieux
▁prétention
▁pérégrination
▁pêché
▁quadrupèdes
▁recensement
▁recenser
▁redescendit
▁redevance
▁refrain
▁religieux
▁représenté
▁retranché
▁réparables
▁répliquèrent
▁rétribué
▁rétréci
▁sanyɛgɛyɛgɛ
▁sariyasɔsɔ
▁scrupule
▁significative
▁silencieux
▁sirakwama
▁sosobarafa
▁stupéfi
▁suprême
▁sépul
▁transparence
▁tricheur
▁tripes
▁trébucher
▁trépied
▁turpitude
▁vaccination
▁vaniteux
▁vergogne
▁vertébrale
▁virginité
▁vociférèrent
▁voudriez
▁wolonwolon
▁wɔgɔbɛ
▁yegeyege
▁Éraste
▁écarquillés
▁émissaire
▁étouffent
▁évidemment
▁ɲɛntannci
obɛɛsebaga
▁Attendez
▁Kamissoko
▁Lakɔlikaramɔgɔ
▁Mattath
▁Solomani
▁algérien
▁bolomadɛmɛ
▁comestible
▁dakɛnyɛ
▁faiblir
▁karangɛ
▁manguier
▁perfection
▁perverti
▁rayonnant
▁renforcé
▁requête
▁réparée
▁sɔmɔnɔ
▁Ɲamɔgɔden
▁ɲɛmadogo
0%
FILLE
Lenkekoto
Repent
Saignement
apprivoise
exaspér
ilakwama
offensif
opprimé
▁Engendr
▁Kagoro
▁Nɛrɛkɔrɔ
▁Promen
▁Respect
▁Siloé
▁clandestin
▁conservateurs
▁débandade
▁entretenu
▁ineffable
▁naafigi
▁naasiwulu
▁nutritives
▁policiers
▁pénicilline
▁remercié
▁saucière
▁sujudu
▁Ɛrimɛsi
▁Ɛrɛzɛndɔlɔ
▁Dakabana
▁Justus
▁MALI
▁chenille
▁décrété
▁déferl
▁poulailler
▁présidence
▁récente
▁soupir
▁souvenu
▁Ɲɛgɛnɛsira
▁ɲori
accoutum
accélér
pɔnpekɔlɔn
▁Bandiagara
▁JIN
▁Meriki
▁accoucheuses
▁charmant
▁déplais
▁déroule
▁exult
▁fibres
▁nalakɛfɛn
▁prophétique
▁siroji
Pitié
indicateur
yocy
▁Cɛfarin
▁Lankakoro
▁Tubalitu
▁colonisation
▁consonne
▁continuellement
▁cornée
▁guinée
▁gâta
▁libertinage
▁mafiɲɛya
▁turisimu
▁Ɲafala
▁FURU
▁communaute
▁fourrage
▁tailladées
enégat
hmann
▁agissements
▁dicton
▁incident
▁républicain
immortalité
▁Second
▁Torowazi
▁grossir
▁kosobɛ
▁modifie
▁nerfs
▁tissage
▁vigilants
▁Moniɲa
▁Zayiri
▁potable
▁sportive
▁COUTUMES
▁Issakourou
▁Maninké
▁Samanyana
▁mununmunun
▁ramure
▁remercia
▁subventions
▁séchage
▁walankata
▁mariyama
kisiyɔn
▁Nkɛlɛn
▁ekaran
▁fautif
▁gesekalama
▁piete
▁pouvions
▁taɲɛnsira
▁gɛsɛ
▁rasoir
▁éclo
EME
tɛntɛrɛn
▁dépositaire
▁nageur
▁Budɔ
▁Dembélé
▁Bilasirali
▁aigu
▁badigeonn
▁gentillesse
▁iranien
▁désiste
▁faufila
▁imprécations
▁nimanɔgɔ
▁tegemagele
armoire
▁cuisson
incommode
▁Gamaliel
▁Priscille
▁exalt
▁frotta
▁précédemment
épluche
▁journaux
aiguillon
▁potier
▁Biendiougou
▁licteurs
▁Erasit
▁amassez
CESS
Mets
enfuient
▁Répond
▁fɔɲɔgɔnkɔ
▁gafesɛbɛnna
▁recrut
▁dajikanga
locuteur
▁Gros
▁Issakuru
▁conclusion
▁connect
▁dévisage
▁poupe
▁mafiyɛnya
ƐM
▁bronch
▁konkanko
▁rhume
▁berné
▁catiri
▁rechange
▁yeninno
ôkè
▁angilɛ
▁agneaux
▁komande
Imra
▁cotise
▁dusulamin
▁vic
▁brassée
▁Banankoro
▁Minnifilen
▁traîtresse
▁Plein
▁renverra
▁fréquemment
▁kunfɔyɔrɔ
▁maamisen
Payi
▁kurunbɛlɛnyɔrɔ
▁secco
▁nièce
▁mandingue
▁Ninakili
▁dorokobaliya
▁recrutement
▁tododa
▁vanneuse
rontière
▁appliqué
RO
rɛzɛnsɛnɛna
▁Sungurun
▁timbre
▁pastèque
▁Prisc
▁Nbakuru
▁baarakɛfɛɛrɛ
matossa
▁Kulukoro
▁dattier
▁palme
▁tuyaux
▁cɛmancɛrɔ
▁persécuteur
▁cordelette
▁déplaît
▁courro
▁sannifeereton
▁taamaseere
▁Jalaki
▁vermine
▁reprodui
Légion
▁fermente
▁kɛlɛkɛminɛnw
olitesse
▁dévier
▁dévoyé
▁arrivât
▁arrosé
▁collier
▁antipathique
▁cachiez
▁distinctement
▁désaltérer
▁passible
▁démêler
▁flacon
orangé
▁combattirent
▁sɛlɛdatigɛ
▁traire
▁Divinité
▁fiyɛwu
▁sannayɛlɛma
▁consacré
▁Consultatif
▁Lasine
▁integres
▁charme
gènes
▁gémissons
▁gémissement
▁Arajo
▁arabadon
▁dérivation
▁Liki
▁TARA
▁Tête
juration
▁foulé
Épaphrodite
▁bokulusi
▁changeurs
étrangle
▁antɛni
▁accéder
▁bɔnbɔn
▁plaider
▁transpercé
▁Nagasi
▁bénissez
▁fisamanciya
▁Tyɛnfɔcɛnin
▁marahabanin
▁Banj
▁médiation
▁ɲɔnsɔn
▁Mpé
▁caractéristique
razz
Kafiriw
▁Bɔlɔn
▁pubis
▁annoncèrent
▁refoul
▁ɔnɔn
▁haïssent
▁nyoninto
▁Bassi
▁excus
▁foosi
▁inventé
▁Mɛri
▁dɛɛndɛɛnbaga
▁Arrêtez
▁Pardonnez
▁divertir
▁solidaire
emportèrent
▁boisseau
▁Naréna
▁achever
▁Jokolo
▁pyaa
▁rejetez
▁minisiriso
▁tourmenté
▁tubabusɛ
atives
▁malax
▁urinaire
▁Fenisi
▁nisɔnduman
▁Dumini
▁Maiga
▁Kuluninkumala
▁Foroforo
▁déchaîn
▁mourons
▁Benena
▁wuruba
▁benbake
▁débattit
ncompréhensibles
fɛrɛnama
▁crucifièrent
Consen
ltime
▁castré
▁Peresidan
▁Untel
▁soulagement
▁Markala
▁mentaux
▁habituellement
▁Lasibaatiw
édient
▁Atɛnikaw
▁furoncle
▁rabrouaient
▁zuluyɛ
▁bousill
▁Fɛɛrɛbɔ
▁exhortait
▁cɔrin
▁kosonkalan
▁ignoré
▁Compar
▁excelle
▁julaga
▁Filanan
▁muntugula
▁Lida
▁flâner
▁musokɔnɔma
▁Konté
▁exagéré
lucides
▁annulé
▁corriger
▁bɔnnasun
▁destruct
Jasa
Keïta
▁maintenir
▁précisément
▁majorité
▁luttèrent
▁sarakabɔdon
Bunteni
▁denkundi
▁souk
▁Psaumes
▁succombent
▁obtiennent
▁prophétisé
▁bubagato
▁familier
▁bouchon
▁jakumawara
▁Jamanakuntigi
▁plaisait
▁Porc
▁Zudi
▁incompatible
▁sɛɛnɛ
▁gongoron
▁fofotaw
▁Kontara
▁Tokoroba
▁basibɔn
▁couture
▁yafaɲini
▁plié
▁Mɔgɔninfin
gens
▁isolément
urita
▁défaire
▁forobacakɛda
▁gué
▁korotora
▁savoureuse
▁accompagnait
▁agis
▁hinɛnci
▁jufasogo
▁enflé
rmure
▁couilles
▁trempe
▁typhoïde
kɔtɔ
▁relatif
▁hautain
▁Kɔngɔtɔ
▁écoutaient
▁discernement
▁nɛrɛmuguma
▁plaira
▁telewisɔn
âtée
▁Donsokuntigi
forob
▁équilibrée
▁Isma
Aréopage
▁désordonnée
▁voleuse
▁consacre
▁maigrir
▁sagawolo
▁suicider
▁Kosam
▁discourir
▁dialectale
▁Furabulu
▁logistique
▁répudiée
▁malinké
▁opérait
séquence
▁Négritude
▁ingr
▁Tɔnmasala
lɛfɛ
▁nɔɔrɔyali
▁promenait
▁copier
▁pleutre
▁jɔnkunna
éperonna
▁Ib
ndegu
▁serein
▁réfléchissez
▁ramper
▁tunkaradugu
▁Fɛrɛ
▁surveillait
▁chloramphénicol
▁Yɛrɛkun
acide
▁régneront
▁Furuɲ
▁Souko
▁batodɔnkili
▁attaquait
▁estimée
▁surabondante
▁relâchèrent
randi
frayer
▁nourrissant
▁exor
▁Luc
▁ressentent
kɔbla
▁périssons
▁miniɲa
▁publicité
▁shufe
▁poux
▁rizière
▁tamasiyɛn
▁servez
▁sirop
▁Voudr
▁sitomon
▁repentez
▁nationaux
▁todunyɔrɔ
dalamuso
▁Teneman
▁sibiridon
▁jusigilan
▁Sogosu
▁baaradege
▁bamakɔ
▁fɛrɛbɔ
▁cherchions
▁stabilis
▁Jateminɛ
▁sugg
▁guérissait
▁misisɔngɔ
▁Kalifa
▁prédisent
imposture
▁Umaru
▁rejoignent
▁deviné
▁Poyi
▁dinyeno
▁rendrons
▁Kulela
▁remplissait
▁lakurayali
▁reconnaissait
▁généreux
▁jamalajɛ
ntigɛmuru
▁Santé
tomati
oboya
▁kɔsagon
▁galaka
▁Pirisila
▁Farati
empoisonnement
kanbɛnni
▁physiquement
▁Bagama
▁Sunaa
Sɛgɛsɛgɛ
▁Balema
▁jalatigiba
anciw
▁fyew
▁femmelette
▁Torowa
définitif
▁Conc
▁jɛlenbɛ
▁Kayes
▁jumafɛ
▁forokiya
▁mugubɔli
▁bonimenteur
lasser
▁sagokɛbaga
▁Maliens
▁baptisait
▁paysanne
▁bitiki
▁murette
▁adorons
▁départage
▁Kabajɛ
landes
▁questionner
▁matinal
▁Kɛlɛcɛ
▁tɔgɔtiyɛnni
▁dagajalan
▁corporelle
▁Salim
▁compost
▁witamini
ppliquez
▁Fɔli
▁sɔndɛmɛ
nonciation
▁Kelebe
▁namakuntigi
▁berebere
▁comprenons
▁nooni
▁Dernier
▁garanke
atɛmu
▁retournons
▁tremper
▁fermenter
▁hijirala
▁Sanyɛlɛma
▁Samarikamuso
▁promenant
Crier
▁dégoûter
▁1.000
▁fondirent
▁libation
▁désignation
▁léser
▁citation
▁reprenant
▁nalonmaya
agenouillant
▁kafoɲɔgɔnya
▁kunmasiri
▁saisissent
▁revêtez
▁salabagatɔ
▁Introduction
▁défaite
▁wolowolo
▁mobilibolila
▁Arabie
▁jirisun
abusi
▁démobilisation
▁Seben
▁récup
▁kogɛlɛntigi
▁madɛmɛbaa
▁Nounou
guenill
▁fajirida
▁dépouillement
▁mêlez
▁Dɔrɔ
▁excessive
ador
▁contempler
▁faatura
▁retentit
▁silamɛyara
tilelamɔgɔw
▁maaɲɔ
▁janaba
malé
▁kenyeka
▁alikamaforo
épinard
▁craignait
▁abondent
▁demokarasi
▁regardiez
▁écorces
▁priaient
▁dalateliya
▁dahirime
assiette
▁balimasurunw
▁talent
ninncinin
▁fɛsɛfɛsɛlenw
▁introduis
▁contredisent
▁vieillir
▁prosterner
▁contredit
▁nourris
▁Calme
▁agitée
▁Kiritigɛla
percevant
▁bolibatolaw
▁surcroît
▁proclamez
▁intensive
▁expliquait
▁yɛlɛmayɛlɛma
▁Kambas
▁industries
▁alika
▁prononcées
yopi
illot
▁sacree
▁tassée
▁jeûneront
ather
▁chevilles
▁compatriotes
▁magistrats
▁millilitres
▁quémandeurs
▁reptiles
▁retenus
▁splendides
▁substantifs
▁électrogènes
▁allergiques
▁divergences
▁numéros
▁refroidit
▁clameurs
▁distincts
▁briques
▁persévérant
▁bâtisseurs
ŋe
▁tenturu
▁aride
▁Musomannin
▁taxi
▁critiquer
keɲe
▁ntolo
▁trompés
▁périt
▁fondateurs
hèse
▁circonstances
▁yerewolo
anan
abomination
▁Maminɛ
▁détournés
▁nafasɔrɔsira
▁daamuta
▁kɔnfɛn
▁ressusciteront
jalannin
▁yiriwo
Tuma
▁furusiri
▁séduite
▁kasange
▁appropriées
▁délivrée
▁repartirent
▁spécialiste
▁sudonyɔrɔ
▁sikara
shir
Éphésiens
walima
aimerais
▁foulée
▁dusukasibagatɔ
bâcl
▁crucifier
▁Bérée
▁conviendra
▁Négué
▁interviewé
▁nɔfɛko
▁Marakala
▁livrait
▁coince
▁woyimaden
▁siffler
▁domination
▁confondues
extraire
▁Jɔnkɛ
▁Zulu
▁enseignez
▁écartées
▁Satè
▁tigetige
zeri
▁valid
ouma
▁2017
▁Kuncɛlikuma
▁eeeh
arrangent
▁kamanaganko
▁Erez
▁stratégie
▁langueur
▁flots
birila
▁acquér
▁Infection
▁Miséricorde
▁Zachée
▁accessible
▁aubergine
▁automobile
▁intellectuel
▁interpréter
▁ivrogne
▁touffe
▁wikipeja
▁oisillon
▁certitude
▁scolaris
▁adorateurs
▁impute
▁tigawɔrɔ
▁Comprenez
▁délicate
▁jurusɛbɛn
▁écrivain
▁Tabit
▁Zuliy
▁respecteront
▁Maribayasa
▁tɔbi
▁Galiy
▁ɲɛnasisira
▁appareil
▁cilase
▁Mile
ex
▁abolir
▁kirikirimas
▁poignée
▁transmises
atizeli
▁serviable
▁commentaires
▁séduis
▁renversant
▁tourisme
▁kelebolo
▁éclaire
▁Shu
▁dɔgɔmanin
▁fureur
▁confondu
▁jatɔya
▁sirabasariya
▁sumayara
▁Selifan
▁plaisent
▁Repas
▁neveux
▁dantige
▁ntɛnɛndon
▁nyenatige
▁courbée
▁fototal
▁géante
▁desséchée
▁Denmisen
▁congédi
▁jureront
▁noyé
▁Selidon
▁mûrit
kabaara
▁Kulusi
▁réussissent
karanɛ
▁Nunu
▁murumuru
▁galopent
▁étendra
▁kɔmɔsuruku
funu
▁vendit
▁limité
Ke
▁nyagamina
▁Sɔɔnin
▁portèrent
▁kɔmɔsi
▁cɛbakɔrɔ
nɛgɛn
▁sanbu
▁séant
▁fournit
▁Taasi
IDA
▁méprisé
▁kube
▁poulette
▁sɔrɔdasiya
▁fyɛra
▁gundolako
▁purifiées
▁ciliko
▁Baninkɔnɔ
▁tɔgɔmalen
▁kulukutu
▁pisser
ANGE
▁donsoke
▁jiboli
▁différente
enferma
▁kelebe
▁grandissent
▁Kanoun
▁Pisidie
▁allongée
▁tronquée
▁buguridala
▁débattre
▁retournaient
▁particularité
nkɛw
INA
▁tressée
▁dogi
aminye
▁volée
▁semis
avisseur
ugutafan
▁souffrez
▁sauveur
NMUSO
llén
▁envoût
▁Cessez
▁dégage
▁verre
▁bê
▁massée
▁surunyara
▁Sirak
▁Hakilintanw
▁infect
▁nɔkanda
▁kɔfilɛli
▁ɲɔntan
▁essayèrent
▁séparation
▁agro
▁comportent
▁tournoyant
▁Medi
Élu
▁bondit
▁gratt
▁respectées
▁kɛlɛkɛlɛ
▁faamacɛ
▁dilacogo
▁animale
▁offenses
▁kunyanfan
▁pharmacien
▁barakolon
▁telefɔniminɛnw
▁rencontrerez
▁halibi
▁protégée
▁prodige
▁idéal
▁pratiquant
▁garni
▁multiplient
▁précèdent
SIRA
▁concentre
▁observateur
rabb
▁lièrent
▁corbeau
▁navigu
bɛrɛ
▁nkɔnibara
▁pɛrɛnkan
▁domestiques
▁inquiets
▁repus
▁Suivez
▁Macédoniens
▁aulacodes
▁brindilles
▁compagnes
▁idolâtres
▁imitateurs
▁instances
▁intransitifs
▁mercenaires
▁repentis
▁sortilèges
▁consolid
▁magnifiques
▁présages
▁insulteurs
▁troublés
▁laadili
▁grasses
▁baissant
▁moucher
igie
onyominen
▁sexuels
▁forger
▁rempliss
▁courtise
▁Dege
▁teinte
▁ténébreu
▁adaptés
Nji
▁salués
▁mandibaw
▁dugujɛda
▁fɛngɛ
abreuver
▁marisi
kutɔ
carnet
▁lasɔmini
▁pénétrant
▁kanubaa
▁suffisante
▁rafraîchiss
▁vaillan
▁vérifie
obtiendrez
▁productiv
▁kɔnɔntɔ
▁marafa
▁divisions
▁Alalandi
enivrer
▁partageaient
▁opérer
▁Sɔrɔdasi
▁dugutigiden
▁pots
NW
▁sɔmina
▁prospèrent
▁efficac
▁erre
▁lahala
fanfladafa
▁relèvent
▁ensorcelé
▁solimaden
▁comporté
▁Susa
▁sensées
▁édifie
▁komayelemana
▁maakoroba
▁éclairé
▁maternelles
▁vexé
▁intéressante
▁recouverte
▁plut
▁offensé
▁limitation
▁trompeuse
▁gaso
▁Sigidamɔgɔw
▁fatiguée
▁QU
SAS
jigui
▁pressent
▁expédi
▁dɔgɔdon
entendi
▁Maloya
▁Kaliya
▁yɛrɛtangamuso
indigo
▁gantɔ
▁Ɲinw
▁sofuru
▁kunbenni
▁retournée
▁convenues
kɛlaba
djan
▁forokokura
▁branchette
▁questionne
▁inviter
▁mesurez
▁kiiritigɛla
exterminer
▁Phil
▁latiimɛ
▁brancher
▁Maɲa
▁Asso
▁Filɛlikɛla
▁hippotragues
▁wolonw
rnement
▁Maliti
▁lacet
▁analyse
▁Adorez
▁Afripédia
▁Serviteur
▁strict
▁zero
▁bosi
▁excellence
▁écran
▁éventail
sɔgɔ
▁Dɔgɔtɔrɔ
▁édification
▁aiguisée
▁lafiɲɛbɔ
▁anglɛ
▁kunwuli
▁Descend
▁remonte
niyasi
▁Bofin
airement
tulu
▁attrapèrent
▁Nomo
▁constituant
loi
▁sunana
▁Gawa
▁experts
▁IX
▁abandonnèrent
▁temenn
jankɛ
▁Sinbonba
▁défenseur
▁parcelles
▁manqueras
▁vertes
belle
▁Masake
▁Miliy
▁édifier
▁nkɛɛrɛn
▁pencher
▁rappele
dɔgɔmannintigiw
▁Trouve
▁clous
▁vagues
tition
toujourspassages
▁Principautés
▁estropiés
▁perplexes
▁totems
▁coopérateurs
▁coopératives
▁blogueurs
▁touffus
▁Laɲini
▁avertisseurs
▁achetées
▁jotigiya
▁waraka
sonya
▁tonobo
kɔrɔɲɔgɔnma
▁chasserait
▁hippopotame
▁1948
▁élargie
▁apparues
▁koporo
▁jinɛkɛ
▁bolodɛsɛ
▁nager
écuelle
▁Hah
▁kunmajigin
▁lamaracogo
▁complexe
▁rancune
▁bariolée
▁féminine
▁sidɔnbali
▁conn
▁Lenge
acharnement
▁renouvelle
Tulu
▁jɛgɛmara
▁gɛnnen
▁frappait
▁dɔgɔyali
dunu
▁kɔnɔnagundo
▁fondamentales
▁surabondance
▁apprêté
▁650
▁dévoilera
▁survenant
▁sirabulu
▁kɛlɛmasa
atelier
▁tɔɔrɔbaw
Cib
▁sonja
▁harpons
asseye
▁dugukolokanfɛn
▁1218
▁mages
▁kɔtugu
▁binnkannikɛlaw
▁nokandenw
▁ŋaɲa
▁origines
▁taisent
▁chique
ɲɔgɔnna
▁nsana
▁ardente
▁accrocher
▁tirait
▁achevée
▁nyetaa
▁farawo
▁retrancher
▁assiégé
▁kolonso
▁sunsun
Siyam
▁Michel
▁fenge
▁Tɔmɔ
▁gâché
npanmuru
▁Ɲinɛn
▁voyai
▁boyoro
▁séjourna
▁wolow
▁sodala
▁Sogona
▁ɲɛdonna
▁tɔto
▁dɔlɔj
▁Guéri
▁séduisant
▁posait
▁ulcères
▁humbles
▁Dugufin
Wo
▁jigintuma
▁Médi
▁sonrai
▁tununni
▁Furam
illées
▁buter
▁800
▁intendants
▁ingrats
▁déçus
▁sottises
▁bâtonnets
▁dérivationnels
▁misérables
▁vernaculaires
▁répétés
▁sexuelles
▁accusés
activités
Kerr
▁dirigés
ŋanama
développés
▁noter
▁kɛlɛkɛcɛ
▁labɛnbagaw
▁institutionnel
flam
polisi
▁impiété
▁Information
▁endurcis
▁attribution
▁inquiétant
▁enterra
▁gakaranɛ
▁Adamadenya
▁mét
▁todun
▁soulev
▁respectez
▁dabilara
téri
insectes
▁veillent
▁tiriba
▁Sitan
▁Yali
▁fuis
▁sacrifié
fɔlen
▁nyedon
▁kamalenni
iyo
▁JIGI
Pars
▁taamajan
▁préféré
▁cassent
▁sisɛ
▁angle
▁Katie
▁kɔrɔfɔli
amiina
▁tɔrɔla
▁limogo
▁(...)
unmasuli
▁jima
▁carinna
▁habiller
▁tarde
nkoron
▁remarques
▁tessons
▁répliquer
▁fakanw
ciens
oumana
▁reconstrui
▁favorisé
▁Séri
▁arriverez
ouvenez
▁annoncée
▁tendanc
▁nikanmɔgɔ
▁surunnin
▁finance
▁Hôt
▁ballott
▁sigara
ɛfu
▁Farafinfura
▁tablette
▁Latige
▁Wi
▁Donda
▁saniyara
▁aboyer
▁arrange
▁yɛlɛmacogo
▁bénéfices
▁illégitimes
▁évidents
▁nyɛda
▁spirituelle
▁acquise
▁noté
▁Bozow
maraw
▁baku
lozi
▁expulsé
▁jatigiya
▁sogobe
▁violé
▁Bogo
▁progresse
▁uriner
▁réveilla
entretue
▁Loa
formateurs
▁yɛlɛntɔ
▁couchent
▁hakililatigɛlen
▁Yɛlɛ
▁chantez
▁dakɔnɔna
ereyɔ
▁chercheuse
▁cantique
▁regrets
▁régionales
▁entassé
uré
▁impact
▁nɔgɔyara
▁Assemblée
▁interprétation
▁débrouiller
▁OCI
amenèrent
▁dalajɛra
▁évaluation
▁banga
▁majeni
pression
▁tiyɛnnikuma
▁moqué
▁gratifi
▁employé
▁formelle
▁PA
▁falenyɔrɔ
▁Ber
▁heurte
sé
excises
▁Walew
▁Jalow
onvention
▁araba
▁tɛgɛrɛ
▁latigelen
▁Ap
bâ
▁durer
▁jurumuko
▁ntɔrɔn
▁avares
▁kɔnɔdimi
ugutlama
▁satisfaits
▁adjoin
▁enterrement
▁prierai
▁voudras
▁terreur
▁tɛliya
▁supportable
diti
bis
▁tinyena
▁komoko
▁invoquer
▁relié
▁Donokɔrɔ
▁équipée
▁resteront
agonie
▁wolobaga
▁forokɛnɛ
itaire
▁partielle
▁semée
▁Jirifura
▁close
▁faamuyalenw
tɛgɛ
▁visiteur
▁masoro
▁Fɔlifɛn
▁laɲagalibaga
▁acceptée
elleras
dés
▁tilacogo
▁nyoni
▁instauré
▁Sefa
▁condamnera
▁Tamboura
unna
▁néré
▁ɲɛbilen
▁erreurs
▁alikamatinsan
▁Npe
▁nabaraw
▁minɔgɔ
▁boite
▁lataga
▁ɲɛɲuman
▁arabes
▁bourses
ozi
▁Malel
fici
alla
wugu
▁haïr
▁enclos
▁excision
▁iniquité
▁sévères
▁Puissances
▁continents
▁vidéos
▁licites
▁siennes
▁supérieurs
▁vaincus
▁écoutés
▁loups
excuser
▁fiers
▁boeufs
▁sauveras
▁constats
▁apportée
amɛn
▁resterait
▁rué
▁entrerons
▁étends
▁incendie
logue
▁domaya
Ami
▁kundi
▁croyantes
▁Fuga
▁sacrées
▁permises
▁demanderait
▁Apo
Vite
▁lancez
▁écroulée
▁frapperai
▁kɔkuru
▁inspiré
▁siraju
▁muguci
▁bolokurun
▁affectée
▁blasphèmes
▁industriels
▁malhonnêtes
▁poursuivis
▁mugura
▁emprunts
▁cracha
▁KO
▁tresses
illage
éparpille
▁kulek
▁Barak
▁soumettra
▁isolé
▁Nunn
▁île
yasa
▁arranger
▁jɛkuluba
▁Kaso
▁sir
▁concrète
▁mailles
▁égalité
ôle
▁kunmab
▁gale
▁oignon
▁ramenée
▁makaritɔ
▁sourds
▁tunique
▁farikololaban
▁transperce
kami
▁Nbɛ
▁oser
▁régnera
▁déchargea
▁kurunin
▁opinions
▁jotigi
▁fortifié
▁cessez
▁tɛkini
Nuguma
▁jugerai
▁coûter
▁sagadenw
▁musalaka
effrayer
▁mennen
▁waleko
▁discut
▁arrachés
▁aimable
▁Mansar
ancée
▁nasi
▁Naga
▁sugon
▁enfantera
▁diyatɔ
▁abandonnés
▁kolatigɛbaga
Détachez
▁impureté
▁emprunté
▁causés
▁LE
▁faamuyalenba
▁abattu
▁SA
▁kasibagatɔ
▁absents
▁kelela
▁bolomafarafɛn
▁étalons
▁gagnés
▁dɔgɔjɔ
▁ravis
▁mɔw
mé
▁Bugu
▁soigné
▁ramène
▁musa
▁connaîtrai
▁Kamalennin
▁éliminé
▁Mars
▁tiger
ecko
▁nisɔndiyaba
kanw
▁sɛgɛnbagatɔ
oyaient
kɔlɔsila
▁(=
▁Op
▁kuman
▁viol
rente
▁ɲininni
adine
falenna
▁redonne
▁dabi
▁laid
▁respectés
▁communautaires
▁vainqueurs
▁démarches
▁terrains
offenser
▁conter
▁battra
▁interrégiona
▁établies
mposant
▁ny
▁hymne
▁plonger
sɛli
▁tuerons
▁tigɛcogo
▁confiées
▁commencée
▁Bandi
▁sɛgɛnba
▁kɔnɔnakuma
kele
▁dressera
▁dunge
▁sansara
lenya
▁tlali
▁embarrasse
ɲɔgon
▁arr
▁danfin
rɛmaji
cine
▁retires
▁tir
▁talismans
finit
▁Farako
▁stériles
▁Derni
▁partiez
fraction
▁parlerez
aggraver
enorgueillis
ouvez
▁gui
▁haïra
▁pures
bantɔ
▁tremblante
▁kantigɛlifɛn
▁appréciée
▁blanchiss
▁cɛkala
▁wolen
▁Maka
jeune
▁lourds
▁transplant
Cent
▁partagée
▁voyagent
▁sût
▁éclatante
▁nkunan
lakono
▁qualifié
▁parfumée
▁auteur
sanyɔrɔ
▁chercheras
line
SUPER
▁2060
▁vanna
onbo
▁Kule
acc
sanu
▁substitue
datu
▁médisant
jin
▁maraboutique
▁moissonner
▁diwa
▁Ŋam
▁cessent
▁trousse
▁cree
▁consumer
aah
pri
▁Malen
▁Dɔgɔn
éprouver
▁Mace
dɔnbagaw
▁goloba
▁installation
▁entreront
▁ntala
▁ɲana
hes
▁banara
▁divinités
▁Ass
▁gaz
12)
▁indi
▁Dabaga
▁numumuso
éduire
▁partisan
oquet
▁kunfɛta
▁castes
▁dogoni
▁supposé
▁jukunan
▁kolonya
▁ɲɛnasisilen
▁Sili
▁taamaʃyɛnta
▁jar
▁aimée
▁muguba
▁Ɲin
▁jali
pɔsi
▁fosse
ogons
▁layɛlɛ
sant
sɛki
kɔsa
kunkurun
▁lajɛba
▁moissons
▁Jose
▁conven
▁dispersée
▁Pha
▁miirila
▁devoirs
▁caus
▁réduis
▁rattrape
▁bétails
▁inférieure
▁entendues
▁couru
▁vols
emporté
▁néo
▁tiɲɛfɔla
▁nakɔfɛn
▁grillée
arilen
▁burent
▁baju
▁cola
taraw
▁tomugu
▁rapportera
▁labɛncogo
▁fori
tin
aminya
▁chapitres
▁calmes
▁sirijuru
sage
▁attaquer
ɔmiɲɛ
▁pourchasser
attachera
▁Sch
▁finikan
▁kuruka
hite
▁balanna
▁filɛlila
nières
▁hydromel
jiran
▁magosi
arrêtera
▁konoma
▁marquée
▁aile
▁sangara
▁Faamawariminɛna
▁balann
▁dafalan
sɔrɔli
▁shubaa
▁sirakura
▁exclusive
lera
maɲɔgɔn
▁enfila
▁analphabète
▁négoci
crètement
▁nè
▁grillons
tufiye
▁abonde
ctivement
▁collecter
▁kɔmɔtigi
▁Taba
▁FIL
emplit
▁délivrer
▁kɔnɔɲɛ
▁mènes
bar
▁Sane
▁sains
▁joginda
▁crue
▁mangue
ƆW
élire
▁centurions
▁batailles
▁union
▁raille
fɛnko
ennemis
▁veilles
▁kanuni
▁prénomm
▁dissipe
▁labɛnko
nte
▁hamiw
âcherai
▁Kɔrɔlen
▁mangée
▁Kɔrɔbɔli
▁soucier
▁déployée
▁jɔnna
Justement
▁évoquée
accompagnant
▁Kaari
ensevelit
▁favorables
▁francolins
▁trônes
immol
ungolo
▁nimisi
▁fitininw
▁zon
siriba
▁Pose
▁accompagna
kogeleya
▁warajugu
uguste
▁kɛnɛyala
▁constituée
▁dɔgɔni
▁mayɛlɛma
▁maasa
ɲɛnabɔbaa
▁germ
▁rendras
▁sɔnkun
explos
▁désengage
▁sèmes
▁gouverne
menée
tiendra
abaissa
oulait
▁mélangea
▁tremble
lijinɛw
▁nains
▁tuées
▁collecté
ʃɛ
dumantigi
nakuma
▁reçue
▁rame
Kalan
▁diables
▁adoré
laki
amana
▁gɔn
▁diligente
nukala
▁tem
bow
▁Montr
isme
▁Sigiyɔrɔ
▁bantɔ
▁apprentissage
lenbaliya
▁observée
▁famines
▁Misiden
▁craints
oreilles
▁épuisée
▁maltrait
▁pend
dila
abats
▁foto
▁Faya
▁tonnen
▁Masinaka
Awa
▁damatɛmɛn
▁cobe
▁boci
▁faibliss
▁minnij
alimenter
▁mus
▁lafililen
▁Jaraw
▁magoba
hind
▁dusumada
▁renoncer
▁dlon
▁filent
▁kulun
▁redevin
▁dɔnkɛ
▁exerç
senw
▁allég
hostilités
ɲi
▁cɛkɔrɔ
▁hu
bservation
partîmes
▁Lot
▁ran
▁yɛrɛkɛ
▁recommenc
▁méfier
▁bɛɛjɛ
▁satuma
▁tɛmɛnsenn
▁arriverai
▁comblée
échant
cɛw
▁tadon
rin
▁kofor
▁Dya
▁partes
▁meule
ative
siraju
▁ressort
lasagola
▁resserr
▁entières
▁grignote
▁invitée
▁yɔrɔlankolon
▁chanteur
▁Mana
▁kakalaw
▁bolimafɛn
ɲɛsi
▁origine
év
sigiw
▁samana
▁baso
▁Way
▁mangan
▁boji
lancs
▁ligote
kofo
Dɔgɔmuso
échappait
▁trompera
tit
▁broute
▁manda
ceni
▁réduite
mper
▁kotige
▁éprouvée
▁Tirim
▁fɔfɛn
▁Soubaa
▁cuisines
▁jilafɛn
él
mez
▁examin
vre
▁Denb
▁barokɛ
valorisé
▁frémissa
éloigne
irons
▁ng
▁Talit
lais
emmènera
▁yɛlɛbɔ
oigner
sabatili
ɛnw
kosɔn
tée
▁dépass
▁taamasiyɛnma
▁gratuite
der
▁poitrines
▁constructions
▁hɔrɔnyalen
▁Kɔnɔn
issa
▁Représenta
▁attise
effectu
étonne
▁délaiss
▁sidon
▁nimatɔɔrɔli
▁écoutera
▁termitières
▁bilakoronin
▁duguda
▁arrachée
▁famili
asile
▁parvenue
isez
innifɛn
▁kɔrɔsigi
▁nɔɔnin
▁saraba
▁malvenu
ninen
▁cinqu
écoutant
manba
Ji
▁alcool
▁Kona
▁anus
tif
niya
accepterai
hy
mères
cela
ɔri
umunin
cir
▁nenibaga
▁Iss
cible
dressent
▁glorifiera
saaraw
▁termina
rique
▁adjure
▁nanbarako
▁éducation
court
itions
▁Bangeba
▁entendra
kalanni
ɔdi
▁baramogo
▁sirakan
avouer
▁444
nbaga
▁kɔmɔgɔ
▁nato
▁feereyɔrɔ
cteurs
admet
▁nikene
▁vi
onze
▁noya
diriya
Nyamaka
nquéra
▁anéantis
▁Nation
ladilanni
▁envies
▁Malak
▁irr
▁dévoile
▁rôles
▁tante
▁kanntan
▁jatigɛ
▁terimuso
▁transmett
▁per
▁dewu
▁dannako
fuyant
rieuse
bagɛnden
▁déshabille
lankolonw
tintin
▁senni
▁buté
▁suivron
Sa
▁warisɔrɔbaara
▁prés
▁Gɔ
dunba
baki
▁fanali
▁jiginn
▁tasumada
▁Datu
▁Jala
guer
▁Baabil
KOW
cours
▁lési
naafɔ
▁généralis
▁parvien
▁ɲɛminɛbaga
▁jinin
▁Lasa
▁aïe
karam
▁bale
sement
▁duguden
▁avale
lée
▁Jigin
▁ramen
embre
çant
▁ravir
▁paroi
▁feerekɛla
▁kuncɛma
▁sonsorol
rrait
anéantir
▁Nba
▁Mur
courant
▁fale
▁ful
▁laboli
▁Cɛkɔrɔbaw
banki
▁déposée
accueillirent
▁gla
▁État
▁unis
jirala
▁cracher
▁disparaiss
▁res
▁contenue
▁taala
▁arachide
▁kɛnɛyabaara
▁sogob
menemen
GL
kɔliden
▁désirer
leurs
▁jolif
▁inclina
▁expos
▁Vin
onjon
dji
▁marchera
▁ép
Jaaka
misigɛnna
▁sanfɛkalan
lɛkan
▁propage
▁poursuivr
▁lanɔ
▁Digi
▁In
nomination
osigibaga
▁Nt
ctions
▁symbol
▁woo
alan
▁combatt
▁maudiss
▁naga
▁adora
lomaw
▁ɲɛnatɔmɔn
herbes
ranchement
▁auto
Ci
con
ow
kh
▁pleur
▁saler
▁effacer
▁jug
▁forma
▁Samiy
▁kamanagann
▁trahisse
▁pun
▁Biri
aju
▁koto
▁sɛnɛn
jɛnɛ
▁mɔɔnɔbɔli
OU
▁baarakɛbaga
▁récompensera
biii
▁Bangebaga
H
▁kisibaga
cerner
▁saisons
▁jalakiba
endroits
fi
▁ɲɛnaye
kasituma
mois
▁ɲaa
▁rencontres
ab
▁donnaba
▁déf
dulokinin
ɲɛsiranyabagaw
adalen
▁allo
obtiendras
▁dusuma
▁formée
sibali
▁Jinɛmuso
▁Dama
nisi
issée
rite
imam
▁contredis
▁CN
▁kunci
ifilen
▁dangan
▁ɲininkan
▁range
tiki
▁setigiw
▁acheva
▁mental
▁fonds
baden
▁harcela
▁essuy
▁kɔngɔba
rnade
atteindrez
▁tapé
▁motte
luxations
dɛgɛ
ɲɛdafa
▁jirinin
kunw
ouiller
▁Ɛrɛzɛn
▁aladen
▁détien
▁Sou
▁commanderai
énée
igiɲɛkɔnɔ
gɛlɛnw
▁kolonw
▁subagaba
▁déc
▁Diyatɔ
▁Yahudiya
gences
▁compos
▁cakɛdaba
iront
▁fɛnɲɛnama
armement
▁précédera
siko
▁denso
▁togodalalakɔli
iches
lage
▁divin
maaw
▁parviendra
▁dalako
ati
▁jinek
▁ɲangin
▁Sinya
rge
▁doté
bilisa
▁jiran
abrite
▁coureur
cevoir
▁nimasa
▁Coup
cɔ
tribution
courir
▁sols
kiti
sait
cole
ina
▁rétorque
▁puisée
▁komin
▁Ɲɔɔ
▁tako
forage
kôrô
bellion
▁Tumamina
ogora
gala
pɔn
▁saran
initi
3
▁Cas
baba
▁Birik
▁apportai
▁démontre
gou
▁Kè
▁Manbi
▁cale
misɛnw
▁mar
▁walejugu
kɔnɔfɛnw
▁sacre
suscitera
▁décri
▁yɛrɛma
abstien
Fati
▁adore
nenin
▁fournir
gofɛn
hara
pie
Eco
menter
▁donkelen
▁importun
▁alarm
ɲɛkɔnɔ
▁voy
moo
▁envelopp
▁conserv
roulé
▁53)
44
turu
sigiyɔrɔ
▁enchaîne
nga
kolonba
▁ladegebaga
versant
▁syɛmuso
▁tolil
▁passager
ntanko
▁carinn
▁mention
uses
▁brun
cen
▁assi
jɛkuluba
nikelaw
lolen
ugumɛnɛ
▁Cé
▁Quinz
▁interpell
initie
shi
▁daminen
▁divorc
▁ɲɛnikɛla
▁2009.
▁ɲina
kɔrɔta
▁Solo
biɲɛ
▁mogolankolon
mortalité
stes
osa
buren
▁kori
Loi
▁revête
▁cré
oires
bɔlɔw
directement
interpella
sogow
▁alarme
apprend
▁retransm
▁ŋaniyajugu
▁convoque
mbi
▁2016
▁figurer
més
▁Kofila
▁muluku
agripp
▁converti
▁filɛlikɛ
▁surprenne
IES
▁déb
ncent
▁janjo
▁nkalonba
arros
▁projeté
▁posséda
eptes
lenkɔrɔ
Faa
▁Sogoba
▁contrôl
▁chan
ak
▁contenterai
▁décourag
Bouc
rieux
▁déclarer
ɔlɔsilijɛkulu
▁cor
lidenw
▁Langue
tation
▁mate
ogojuguya
anyuma
lés
▁convoit
▁surnomm
▁suivr
▁Ɲɛna
▁champion
▁sabaras
▁Kha
▁jailliss
mugumugu
▁répondi
▁prévien
isait
▁redir
▁balila
attirent
▁décou
▁Pɔ
▁roul
palan
eerew
▁Chan
▁pot
bril
▁br
absti
▁jonch
▁bilako
gile
rcher
▁persécut
étan
▁précéder
▁rassembl
ateurs
antara
▁Tobi
entoura
mett
▁Bah
ngoron
▁dugumad
tɔrɔ
▁livrée
▁malheurs
bata
▁ɲɛsiranbaga
hum
▁Ɲɛfɔ
▁Produi
▁expliqu
quat
urancɛwaati
▁dunanjigin
▁reti
▁jolida
▁Saou
endront
▁fard
▁gonima
walan
▁nsara
▁labi
▁reviendr
ouait
mam
▁Bre
▁bɔkala
▁dɔnkilida
▁barde
redire
akorojama
nkoro
▁gu
lɔn
matigɛ
▁enlèvera
yons
▁Sar
▁fléchi
natumu
kho
▁dusukungɛlɛ
kara
▁contredise
▁soci
crièrent
▁statue
▁Denkundi
iche
▁essuya
foncé
▁lamɛ
▁inclur
kebaa
offrira
range
hé
bilité
▁oublia
fondra
▁résist
▁maɲumanko
▁Tubercul
▁referme
ise
01
▁développ
▁suffi
IKI
▁ressembler
▁Kou
▁kunkuru
kaman
yelemanen
▁dissipa
▁recommand
▁Profit
▁baissé
▁ɲɔgɔnyeba
IRE
iendront
▁ntonk
▁châtier
bɔtuma
▁rougira
▁kanana
ocation
mɔn
elenin
raba
▁obtiendra
irisi
▁kumabali
alifa
▁soɲɛ
fasan
▁fɔkan
▁sundon
onnaissant
dalen
apport
exclame
glob
▁incit
▁révéla
misɛnniw
ema
▁Sumuso
▁bolibaga
▁?...
ò
tt
▁Nje
sseurs
▁gâche
▁diyɛnna
▁Amp
▁propag
▁gi
ternité
rendront
misɛnni
keyoro
▁kamank
▁adress
▁Envoye
laka
▁insist
Bar
anmajira
Gr
▁quittai
▁fournira
ron
▁Faga
▁finitigi
▁aima
▁donokɔrɔ
ITÉ
▁demeurai
▁bris
itèrent
komasa
nde
▁afflige
polis
▁wow
lojɛ
▁donjan
anfa
▁signé
gari
▁écarte
▁posi
rd
mbé
▁filana
Vi
kanabagaw
▁wuluya
tenir
▁joui
▁panne
▁kosen
▁réce
dɔnna
▁régner
nos
▁redresse
deme
venue
IKIK
nflamm
▁const
IR
▁Compt
nyen
▁rappela
▁cap
badaa
▁kɔlɔnkɔnɔ
▁commander
▁gon
kalanso
oussant
tenait
ngasa
▁Pes
▁wɔ
adonna
ignit
gés
▁furuɲɔgɔn
▁requi
akɛɲɛ
accepter
▁hiver
▁Dibi
nakow
sunsun
▁dédi
▁dévoil
▁sɔnbaga
▁accomplisse
▁sanction
sebali
▁tilabaga
▁accompagnat
dɔgɔya
▁commenç
nfo
▁informa
▁entraîna
▁mɔlen
▁nourrissai
ɛna
irez
▁Taga
▁réglera
imiter
▁enco
▁barita
▁fournis
▁Tente
admettr
▁Alika
furuli
▁proposée
tribut
▁réconcili
▁Tié
î
fuw
erait
human
▁Soci
foron
tɛri
▁réagi
▁taaɲɛ
oire
faw
fɔcogo
▁incul
▁surveill
amen
▁cogola
ines
▁sonsoron
▁brout
▁siribaga
sing
▁Fil
▁yoo
▁sɛbɛnbaga
▁Tilebi
▁attesta
▁attaqu
autorisa
▁lasɔmin
Sabara
▁nkun
sigibaliya
▁kiritigɛl
appartiendr
▁dɔnkɛla
▁trouvai
▁jenini
▁échoua
end
▁ressorti
dafa
kɛrɛ
▁augment
▁global
kaɲi
▁fauch
▁examina
tigɛli
oh
aché
dole
fon
▁kɛnɛma
ɔki
▁bilayɔrɔ
karités
zé
STI
nɔbɔ
ngɔlɔ
▁sanjiko
▁pourvoy
▁ressemblera
▁discour
nko
▁Poli
dusɛbɛn
anche
igilen
▁bɛlɛnn
sɛnɛ
▁fulan
▁13)
Kɔ
▁masirila
▁élev
keme
▁Musokoro
ALA
▁resserre
▁balaie
▁kankelen
▁prévue
mou
abi
▁bénéfici
ites
▁suli
▁diminn
▁kalanbaa
uge
▁gér
lise
nman
usse
ɔdon
nellement
▁serra
ɛrɛfɛla
viendront
▁choisiss
pique
adonne
nnibaga
immole
arrangea
▁Kor
seereya
▁illustr
▁had
▁écouta
ɔnsɔn
▁QUE
▁bonkɔnɔ
▁entraîn
émet
▁jigintan
oula
▁daminɛn
rali
zoni
▁lɛkulu
ogramme
▁découpa
▁Kény
▁installa
liko
▁Kini
▁mura
nmuso
alanzan
▁affermi
elev
ahobila
dalanw
diquer
ium
tailler
▁Kare
▁Em
geleya
but
▁kɔnɔsul
ilée
lus
▁consol
▁(...
aigreur
▁silen
ɲinin
dimifura
mber
ix
▁déco
ints
▁ɲugu
▁Apolo
▁Tand
▁karamɔ
lions
▁Faut
▁suffir
▁bless
▁logea
▁aiguis
▁Kounou
▁sɔnnibaga
▁pardonn
▁embrassa
▁Lakana
▁Dafa
bɔrɔ
▁agite
▁Lahɔrɔma
▁morik
▁individuel
▁Muɲu
roce
gawu
▁Hémorr
ssurer
▁empli
▁grond
▁Sug
▁lente
passer
lette
▁prophétis
▁nanzarat
▁cɛfɔla
talan
▁Mare
isé
▁Pe
▁fɛnba
▁sensaba
▁remarqua
ntikɔ
▁céd
mɔni
▁enroul
fɛɛrɛn
▁stupid
▁jolibɔ
oindre
hibi
▁birifin
ifiant
ncez
serons
lasira
▁négoc
endre
minɛbagaw
umaw
fla
▁Yah
nɛgɛkɔrɔsigibali
▁écout
▁perc
tlon
▁jenbefɔ
▁visa
▁gerenni
inform
▁métamorphos
utile
kumu
ats
xécution
▁Jusque
▁dispersé
▁marqué
▁orale
apporterai
maga
▁tournai
soli
▁fléchir
▁Jaka
▁Nyan
inda
▁Ra
labɔla
▁médi
install
ɔnnaw
▁souten
rɛsi
tiens
▁moqu
▁gên
▁altér
cha
▁éclate
▁ambi
▁jɔbaga
▁fye
▁cueill
sew
▁verte
▁bwading
nnafɛn
taga
▁réintégr
excit
▁Mos
▁fɔnfɔnnin
▁janfan
rabɔ
▁Nton
▁enfonc
emé
▁bangeba
▁mansa
tiers
▁transmettr
▁équiv
▁Koma
banin
arta
empêch
▁valorise
▁Denkɛni
▁emménag
gne
So
dûment
▁substitu
nakaw
▁Nombre
poli
▁balaya
▁ŋo
Pri
saniya
▁médisan
cité
▁partag
ocher
▁incessant
▁dévo
▁ravag
▁confronté
ɲɔgɔnmaw
bel
▁écha
▁qualifi
▁intervin
▁jɛnsɛnn
▁Mou
chi
▁chang
▁Furakɛ
▁Régi
▁Hom
600
▁politi
▁pintadeau
ɛlɛku
▁tig
enfl
dufa
▁kusan
▁Dɔɔnin
lle
▁poro
mplissent
tirent
mène
▁bleu
ouer
sansifeereyɔrɔ
▁apparaîtr
▁yelenn
ssi
▁tɔmɔn
nafen
banakisɛ
aillent
▁Saisis
ɛri
▁tenta
mukan
▁Takisi
▁pl
▁bangen
▁Diɲɛna
▁annule
éta
gula
chant
▁Zé
ɔra
nyangatan
▁parvienne
engendre
▁Ser
▁ramené
▁appréci
kɛli
ER
onnement
écrase
▁contra
▁Tɔnɔ
voyance
lancée
aggrave
▁embrou
lliance
▁senfila
faro
▁Kɔlɔ
▁veill
andiw
▁mɔgɔɲumand
uc
Exécuti
▁Nabi
toli
▁kuntigɛ
▁employ
nimaux
▁coûte
▁labanbali
▁note
▁cinni
vel
pprendre
casse
vèrent
▁fadenkɛ
▁principal
▁neem
▁écroulé
pha
▁affecté
▁charg
▁hakilifalen
▁assemble
▁abandon
ANT
puis
▁enfl
sagon
▁asservi
▁sauvegarde
gal
mɔkɔ
▁adapté
▁nyinink
lor
OR
attrapes
▁mèn
èche
▁purifi
▁Bam
ibu
▁identifi
▁attribue
▁épousera
orage
likamatinsan
ltère
▁instaur
pon
▁parfumé
▁respectueuse
▁kɛyɔrɔ
▁faari
nkolon
Ɲ
▁perdreau
édition
folo
▁detourne
indique
étr
NA
mansin
ignor
X
eaux
piri
▁tombai
▁placera
▁dév
entraîner
tomo
rɔni
▁che
not
position
ommes
imite
▁makara
▁figur
▁formul
banfula
abeille
▁Hara
▁institut
donso
ssins
▁déploy
▁charnel
poro
uter
galama
UN
▁saut
tubercule
ind
▁pétri
tement
mplication
ourd
ZAN
puta
▁jailli
annuel
▁enterre
▁cɛlas
camarade
mettre
▁réplique
▁révolu
▁rabrou
▁rond
griot
nombr
uels
acquitte
aco
urillon
arabe
croît
hɔrɔnya
▁taise
kirin
5
gourd
falatɔ
▁évoqu
ville
infirme
gresser
▁Tal
kodɔn
▁daɲɛsa
bonne
▁effray
tage
obtiendra
arder
▁régl
ête
ndi
imbécile
▁bure
▁emportera
fauve
MAN
agenouill
6
pendant
oup
graine
jolo
▁Ting
échouera
archi
Écoute
garder
forow
abreuv
RÉ
hôpita
▁sexuel
kiriti
disant
interview
Fugula
cɔɔ
original
lafiyɛn
échappa
shyen
av
▁rafraîchi
élargi
infection
ancre
▁Fiye
habiter
fusion
auri
rante
▁Rentr
terre
élément
institutionnelle
▁assiég
vité
active
ɛsogo
sɔnfɔ
▁étroit
quoi
▁geley
npogotigi
TIK
gitation
geant
égarée
jurer
pide
▁masuma
enseignai
taamabaga
augment
ɲɛmɔgɔ
rganisation
afoni
hɔn
▁orienta
enfonce
appréci
lila
signe
existai
humilie
taki
écouta
altern
ffrir
▁subis
kɛɛrɛn
acheva
Hypocrites
querelleur
jumbe
Abcès
argument
arrogance
avarice
expiation
indigence
épisode
aboutissement
Kɔnɔbara
ensevelir
invisible
dalenw
nvocation
organise
accro
rayon
bɛnkan
silabugu
inverse
▁jɛngɛ
étiez
▁guidera
SET
rgence
cul
dumun
adjure
enroul
vu
▁Rama
obéit
nyɔgɔn
ndicat
senna
MO
béissez
prenez
selikalo
jukuna
Entende
Dibi
colore
QU
▁frotte
Descend
Aï
adj
invoquer
boeufs
Adorez
écran
Afripédia
Serviteur
lafiɲɛbɔ
strict
abandonnèrent
analyse
Dɔgɔtɔrɔ
excellence
Ɛ
inspiré
Gawa
accroupi
kunntan
éventail
▁approprié
anglɛ
zero
édifie
hakɛ
édification
attrapèrent
exhorte
IX
Él
aggrava
épuis
fugula
Geta
orge
tugannin
dure
Dɔgɔ
SESEYɛLɛSI
inanités
publié
épaisse
Aaron
emmena
astuce
clair
kɛlɛcɛw
actuel
wiy
essentiel
Pati
réussira
Etat
jeliba
sariyasɛbɛn
masoro
innocent
dumu
▁kinni
terrestres
CEDEAO
allure
volontaire
incantation
étique
Pense
piqué
appellation
discrètement
ONG
habile
▁Math
dévorer
lote
allume
mets
daɲɛgafe
cadette
nvention
guè
Abba
Garde
André
Fétiche
Iscariote
acceptons
associé
perdition
informatique
sawura
Êt
ɔnko
dɔngɔ
plomb
tantôt
▁suscit
surun
Attends
Alizeri
Corneille
Fanhan
regroupement
Wuyi
indéfini
édifier
segi
musomanw
Misiri
imatɔɔrɔ
resse
▁vex
Marifa
affixe
Gosi
Bonjour
mod
Sonsan
ŋala
Bois
accouchée
organe
Kɔrɔnɛyi
MINUSMA
Angola
entreprises
DEDEY
Béni
incapable
▁officiel
kiiri
kɔrɔsigi
gestion
parfois
constance
surprise
gwan
▁excit
Nkalon
perclus
rahim
kegun
seegin
lourde
jogin
social
fililatilennan
simplement
porozɛ
Isiray
interdis
Amiina
Kɔɲɔ
Jinɛjugu
baganmara
bétail
catégories
Isirayɛlidenw
pêche
Mamadou
Buuru
citoyen
braves
Jinɛ
Google
▁senkelen
@
egare
2010
Sezari
▁troublé
pensée
connaître
Malheur
Oncle
incirconcis
Kamalen
▁Farila
ânesse
Jacques
destination
finalement
Kabako
Très
nouvelle
rice
dɔlɔki
humains
Sawuli
dorokolen
Macina
défunt
mensonge
porc
nisɔndiya
regarde
ensuite
weleli
sauta
premier
Zifuw
personne
Christ
Mogo
Ainsi
ceinture
Bɛɛ
Jusqu
kɔmɔ
Aucun
Segu
voici
Ségou
kerun
couvre
Amen
Diata
jour
kɔniya
Kita
trois
point
2015
pied
▁persuad
▁dévoiler
exhortation
féticheur
buruju
Misi
▁tremp
Demandez
tarata
termes
timinandiya
fisaya
bouche
Marie
Tous
Musulmans
▁procéd
Halisa
Porte
Fɔ
vive
ɲigin
Ayiwa
demisɛnw
ɔnhɔn
▁Ng
▁Nfa
▁régulière
bœuf
sogosara
ɲininka
hakilima
puisque
change
jate
Sigi
rouge
tɔɲɔni
jurumu
Tugu
syn
▁timinandi
Nafa
tooro
Tulo
nyimi
▁Hypocrite
▁quotidien
▁spectateur
▁auxiliaire
▁différend
▁dissension
▁démuni
▁opposé
▁prosélyte
▁électorale
▁mélangé
matin
▁beignet
▁cochon
▁génisse
visage
▁célibataire
ôter
▁dorog
manger
▁contemp
seben
Denkɛ
fereke
lahara
tiyɛn
fondé
▁Combat
rendu
▁cancer
muet
goût
funun
▁devance
▁exhorté
entretenir
jɔdon
Nɛgɛ
koroke
colas
imaginai
siyɛn
▁salué
▁Mɛ
Éli
Jamana
▁expert
▁Macédonien
▁aulacode
▁brindille
▁compagne
▁idolâtre
▁instance
▁intransitif
▁mercenaire
▁imitateur
▁étrange
▁gonfl
▁contexte
▁repu
▁sortilège
▁présage
rit
shuya
▁Ntola
observ
kɔdafa
laisser
dogoni
sache
science
▁Badj
▁débiteur
▁religieuse
▁végétale
▁juif
▁intime
▁centime
▁fourniture
▁chevr
▁fumé
▁grasse
Bambara
▁magnifique
éco
▁existant
nstructions
numu
▁drogue
▁prostituée
danbe
▁étudi
▁mentionné
lamine
▁Israélite
▁compétente
jamais
nuit
Denmisɛnw
tɔnɔ
▁grade
ign
kɔrɔkunkolo
▁vélo
tigilamɔgɔw
éfinition
chante
▁déchet
ordure
▁agricole
▁oeuf
▁temoin
▁amélioré
▁précaution
▁termite
▁coudée
▁wasobaganci
▁consolé
▁dégât
▁compétence
▁Prophète
▁Ségovien
▁variété
inspire
agneau
ouange
nage
▁vigneron
▁Jacque
▁fall
lajɛba
illée
▁guêpe
fala
▁commerciale
avion
laissons
▁extra
diminu
sorcellerie
▁resplendissant
▁professionnel
rog
tirer
égage
▁bagage
pierres
acceptez
arrivait
▁Np
▁attendra
pé
▁taamasiɲɛ
fagabaga
louse
▁kunfɛ
battirent
▁reconnaissant
attendait
▁vendeur
▁division
écret
Retourn
écider
gique
Nafolotigi
▁nouveauté
▁tɛkin
ictionnaire
aboyer
égale
▁telefɔniminɛn
blon
▁dénomm
IW
▁kiiritigɛ
imitation
ission
donner
achemin
dugujukɔrɔnafolo
▁Boj
unhun
▁prévenu
▁farafansi
▁Environ
▁abattue
▁gabakuru
▁Lave
▁rempla
affermissai
Cha
ploré
▁jɛgɛmisɛn
▁Mandi
veille
seule
▁Maure
Deux
▁fû
hère
▁outrage
ourds
▁chercheur
▁ressembl
ogoro
▁profér
icilline
UK
▁ɲɛmajɔ
ɛrɛnkɛrɛnnen
firiki
▁opération
▁Jaga
▁buguturu
▁endorm
▁machin
▁bololafɛn
enterra
opposa
▁claque
▁Gurum
▁Reven
ruta
tri
exag
faaba
kama
▁humilie
▁débarrass
fficac
habitue
▁domestique
▁inquiet
laadi
▁telima
▁plais
▁Kuncɛli
▁abus
elebele
▁dɔgɔman
Cɛnin
hɔ
▁céréal
ugɔli
afabaga
ufus
jege
▁insulteur
nèg
▁impie
▁suicid
Vois
npɛrɛn
▁Kunma
▁dukɔnɔ
kuruba
▁produis
▁gratte
▁Bagu
avanc
Tin
trou
alterne
▁rembourse
uste
▁débrouill
▁soulage
▁aveugl
▁Sɛbɛ
▁Filɛ
▁dahirim
gɛla
orrection
▁Konyo
▁Imaniy
▁samaritain
▁crott
▁grammatical
▁assistant
amasse
▁boucle
▁nafasɔrɔ
Anne
ollectivité
▁Conf
hemise
ommunauté
élèbre
hèvre
olère
05
▁incendi
infirmes
▁plaisant
▁distingu
▁tressé
▁penchée
▁exaucée
▁Maamar
▁tranché
▁impliqu
igetige
TRE
▁résoudr
ransfigur
Bala
▁enfui
kenekaraba
coutez
▁vaincr
dict
mprisonnement
echnique
▁capital
ARA
çonne
▁Jigitugut
ounou
ƐN
▁naminɛ
▁croyai
▁chron
▁délibér
YE
▁ôté
fauves
▁représentati
▁av
▁reprenne
NAN
▁Funu
▁grandisse
▁matt
hercher
anifestation
▁défait
▁sanitaire
rygi
ssable
▁Npogo
▁convienne
ganga
▁sibo
osidaa
upu
ɲɔgɔnye
▁Dakar
▁éc
énerve
▁dompte
masakɛ
▁Fɔkabɛn
Avan
▁grammatica
▁Mamo
▁rampe
fɛɛ
▁transpire
envole
▁blotti
▁alité
éperon
▁déménage
vitamin
▁emprisonn
▁Guimba
▁trafiqu
▁satisf
▁Tɔnmasa
▁soupe
▁bouleverse
wasira
▁répare
istr
▁inconnue
Nege
yanyeko
▁Africain
▁maternelle
▁copie
ɔnkalate
ƐRƐ
▁Koɲuman
▁magnifi
▁travailleur
▁conquér
▁flân
vidence
fula
▁kɔlafa
auté
EUX
▁Azawad
▁kuncɛdɔgɔ
▁garabasu
▁Cekoroba
jambiste
couter
lakalan
clave
ƆGƆ
ridinatɛri
ényé
▁probable
▁corromp
▁brusque
âché
Nanbarak
▁tɛnɛmako
▁infirmi
lɛki
▁collèg
ondations
amadou
Expli
menkola
stic
▁majorit
jè
▁recoud
▁Ɛri
hémo
▁rapatri
novation
▁Tod
Grande
doubl
▁project
rotection
▁Arabi
▁Akila
alifou
atossa
▁rêv
atricide
▁Publi
▁stéril
▁glorieu
UGU
▁charpent
éveilla
▁bourg
Ro
://
edéploie
édica
▁concept
▁bunte
▁intercess
▁maraîch
▁Dougoumogoto
TƐS
▁Sukaro
▁subahana
offertes
intéressa
▁Transf
honsari
yɔkɔyi
▁Bourem
▁krista
Espagne
Rabbouni
Univers
extorqu
inscriv
psychologique
ruption
ë
▁Dogoyɔrɔla
▁Envoyé
▁Faranfasi
▁Jabalija
▁Kèlèkèlè
▁Songez
▁autonome
▁bouscula
▁crépiss
▁engrangé
▁enivré
▁européenne
▁fossoyeur
▁frivol
▁grassouillet
▁imprenable
▁indifférenc
▁inséparable
▁inéluctable
▁kɔrɔɲɔgɔma
▁majestueuse
▁mécontent
▁orfèvre
▁pontifica
▁proportion
▁pâturage
▁rempart
▁râpeu
▁récalcitrant
▁subahanna
▁tigensonya
▁trottoir
>
Alphée
Bagay
BƐNBAKAN
CISION
CNIECS
CSCom
CSRef
ESSOR
Humanité
Ignorance
Inconnaissable
Jalakɔr
KANAKO
KɔngoBraza
Mananunu
Muhamadu
Onésiphore
POSITION
Pantawu
Qayyum
RÉPARATION
SETEY
Servir
Typhus
_
aaseremadali
abdomen
accélère
achoppement
adversité
agrochimie
amunyu
antimoine
antɛmɛntɔɔrɔ
appréhender
appâte
aransasa
arrondir
assaisonner
attriste
avortement
continence
coreligionnaires
effiloche
embouteillage
embusqua
engranger
enhardis
ensuivra
etarasikilini
gatifs
hurekarankarante
hydrocèle
impatienta
impertinen
imuluku
infaillible
inikimanaka
invalidité
irrigation
kuncijeleninkala
mugufyeyoro
nkatimakar
onjonctivite
orifice
orpaillage
orrhée
phalosporines
praticable
prépuce
pédie
rgelet
roussette
résignation
tungafɛtagalaw
ulafundo
uloranfenikɔli
utérus
ydraulique
yrophénicienne
Équipe
échauffa
égrène
émotion
épilepsie
érasénien
étouffer
étourdi
étudiez
▁Ansɔngo
▁Antipat
▁BOBs
▁Birintili
▁Bondamanjak
▁Bouaré
▁Boundou
▁Bouteflika
▁Brucellose
▁Buffon
▁Bulukatimakar
▁Butefilika
▁Bɛtilɛyɛmu
▁Bɛtizata
▁CONSTRUCTION
▁COÉPOUSE
▁Cantonnement
▁Cenchrées
▁Cesirilan
▁Cinquante
▁Cinyènta
▁Clairvoyant
▁Commandant
▁Crucifié
▁Cyrénéens
▁Dagadialan
▁Demetiriyusi
▁Derbé
▁Diakourouna
▁Dieneba
▁Dimimadalan
▁Discernement
▁Djenné
▁Dorcas
▁Démétrius
▁Empoisonnement
▁Facebook
▁Faveur
▁Firizi
▁Fièvre
▁Galates
▁Gandounkha
▁Gandunkha
▁Garçons
▁Gidime
▁Gnogolon
▁Gomorrhe
▁Goundam
▁Grossesse
▁Guidimé
▁Gundamu
▁Harân
▁Hayidara
▁INTER
▁Iiiih
▁Jeûne
▁Julius
▁Jupiter
▁Justice
▁Kabadiè
▁Kaliwɛri
▁Kandanya
▁Karambe
▁Khamita
▁Khasso
▁Kilewofasi
▁Kèlèkè
▁Lambidou
▁Lucius
▁MANINKA
▁MORT
▁Marebatama
▁Maribayassa
▁Mayimuna
▁Maïmouna
▁Muluku
▁Mysie
▁Naruto
▁Nbadiala
▁Niosson
▁Nutrition
▁Nyenema
▁Nèrèkoro
▁Néanmoins
▁Orodɛ
▁Philippiens
▁Progress
▁Rharous
▁RÉCONCILIATION
▁Résumé
▁Safunɛtawulu
▁Segikɔrɔ
▁Sichem
▁Siguirin
▁Sirofenisika
▁Solayman
▁Songho
▁Sosipat
▁Stéphanas
▁Sufɛfarigan
▁Sugunɛbilenni
▁Sulfamides
▁Sumadiyalan
▁Sénégal
▁Sɛmɛntiya
▁Taméné
▁Tiberiyadi
▁Tiramakan
▁Tokòròba
▁Tominian
▁Trône
▁Tɛritulusi
▁UDPM
▁Yamoussa
▁Zerazeni
▁accostèrent
▁accoudé
▁affiché
▁aguets
▁alamisadonya
▁alexandrin
▁amoindri
▁amput
▁angolais
▁arrangée
▁artérielle
▁assaisonn
▁associatrice
▁assoiffé
▁astérisque
▁azymes
▁baafanmɔ
▁badabafiye
▁barbotage
▁besogne
▁blasphémer
▁boulanger
▁bouleversé
▁brouilla
▁brûlons
▁bugayici
▁bugufiyɛw
▁bulalama
▁cabaret
▁cadenassé
▁carapace
▁cardiaque
▁cargaison
▁carnassier
▁castagnette
▁centuple
▁chaumière
▁chavire
▁chichement
▁chinois
▁chlamyd
▁chouchou
▁cicatrisée
▁circuit
▁cithare
▁climatique
▁colonial
▁combusti
▁commémoration
▁commérage
▁compétents
▁concevra
▁concordai
▁congres
▁conjectures
▁conjugaisons
▁contourner
▁cotisation
▁coutumières
▁critiqué
▁cuisinèrent
▁cɛntacɛ
▁dakabanna
▁danmakɛnyɛn
▁daɲɛduurumaw
▁daɲɛnaanimaw
▁daɲɛwɔɔrɔmaw
▁diabétique
▁diaporama
▁diaspora
▁didrachme
▁diffuse
▁diibidiibi
▁diligence
▁discret
▁dissoudre
▁dormaient
▁dusutɔɔrɔkuma
▁décortiqué
▁déguisé
▁détachèrent
▁déteste
▁détriment
▁détérior
▁dɔgɔfiyɛ
▁effervescence
▁egard
▁environnants
▁européens
▁extase
▁ferveur
▁fidélité
▁flagellé
▁flamboyants
▁foisonnants
▁fornicateur
▁foudroy
▁fraternise
▁fugitif
▁fujunu
▁fyefyelen
▁gangrène
▁gorondo
▁goudron
▁généalogies
▁haillons
▁hampe
▁handicapé
▁hydro
▁hâbleur
▁hérissaient
▁idiome
▁immédiats
▁incommodé
▁infantile
▁injecter
▁inscrir
▁insouciant
▁intarissable
▁introuvable
▁intrépide
▁itinérante
▁jachère
▁jenikaɲimi
▁jujubier
▁jɔjɔlima
▁kabapɛrɛn
▁kannajurutigiw
▁kansɛribana
▁kɔrɔɲɔnma
▁kɛrɛbɛtɛ
▁lamununmunun
▁laxatifs
▁lengelanga
▁lexicale
▁libellé
▁limogobatafa
▁littéraire
▁longanimité
▁lozisiyɛli
▁législative
▁machettes
▁malodorante
▁malpropreté
▁martyrs
▁matrones
▁menstrues
▁metemete
▁micro
▁microgramme
▁milligramme
▁miziki
▁molosse
▁morigéner
▁mourût
▁mythique
▁mécru
▁ménagères
▁métallique
▁nimakaran
▁nkosonbaranin
▁nocturne
▁nuptial
▁nutriments
▁nyamɔgɔden
▁négligé
▁nɔnfɔn
▁obtîn
▁offensives
▁opéré
▁ourébi
▁panparan
▁parvîn
▁paupière
▁perspective
▁perçoivent
▁phalange
▁phénomène
▁planchers
▁planchette
▁plastique
▁pluvieuse
▁poly
▁pompe
▁potassium
▁primauté
▁problématique
▁prophetes
▁proscrir
▁prosterné
▁providentiel
▁préalable
▁précipité
▁préparions
▁pâture
▁péchez
▁pédagogiques
▁pédal
▁pédoncule
▁pénitence
▁pétrole
▁quinquéliba
▁rabote
▁rebâtis
▁recracher
▁recroquevill
▁redevable
▁redéployé
▁rehauss
▁remontrances
▁repens
▁repéré
▁rescapé
▁retiendrez
▁rougeoiera
▁réaffirm
▁réclamé
▁réhydratation
▁rétribuera
▁révolta
▁révolté
▁rôti
▁sagagenna
▁sanudunden
▁schistosomiase
▁scintille
▁sculpt
▁selimafo
▁sevré
▁sexualité
▁sincérité
▁siniɲɛsigi
▁solvable
▁sosobatafa
▁soufre
▁souplesse
▁soustraire
▁stagne
▁sugufiyɛ
▁survécu
▁sénégalaise
▁taamashiyen
▁temporels
▁tinyalenya
▁transcription
▁transsaharien
▁traquées
▁traumatisés
▁trépas
▁tɔgɔtiyɛnkuma
▁universitaire
▁vacciné
▁vagabond
▁venais
▁vengé
▁veridique
▁verrues
▁vicieuse
▁viendrons
▁voudront
▁wakulɔnin
▁waridunden
▁yɛrɛlagosiko
▁Élymas
▁Étudie
▁écharpe
▁éclabouss
▁écrasons
▁ŋenye
▁ŋenyeŋenye
▁Ɲagami
▁Ɲanibugu
▁Ɲɛjalandimi
▁ɛnhɛn
▁ɛsipaɲɔli
▁Archippe
▁Buisson
▁Farikolojidɛsɛ
▁Gaston
▁Kokiribozo
▁Koyita
▁Magadan
▁MƆGƆYA
▁bijoux
▁bɛnkasɛbɛn
▁ceindra
▁certifie
▁clavier
▁daŋon
▁frisson
▁fyento
▁naganaga
▁navette
▁patriotisme
▁réglement
▁tardif
▁ɲɛmɛku
Athéniens
EMOV
MISAHEL
Madagascar
Sebeninku
apaisèrent
emmêl
luviale
obstin
orénavant
outiquier
tentulubo
tubayebali
Éthiopie
▁Bilenmugu
▁Commons
▁Dusulamin
▁Lasɔmi
▁Luganda
▁Permettez
▁Protéines
▁Sopat
▁Sénat
▁antirétrovira
▁blasphématoires
▁calmée
▁caïman
▁chretiens
▁côtoy
▁dahulama
▁differe
▁discerné
▁divorça
▁doolomaw
▁dususaalo
▁déficit
▁déterré
▁empressé
▁enregistr
▁gardons
▁grogn
▁géomètres
▁hypoth
▁imberbe
▁indocile
▁jumelle
▁justiciable
▁kiirikunkan
▁kunkorota
▁lymphatique
▁missionnaires
▁monogam
▁météorite
▁mɛɛnnenba
▁navré
▁naïf
▁ngoolo
▁ntoolen
▁palmier
▁pavan
▁perpétue
▁precipite
▁préparons
▁rebâtir
▁retrace
▁rudoya
▁sankorota
▁scélérat
▁sementiya
▁soûl
▁succulent
▁sujudukɛtɔ
▁tilapia
▁tramait
▁tɔndenjamana
▁yenninno
▁zigzaguer
ATÉ
Crétois
Grady
NAFAMA
Remerciez
annonçons
toxic
urusiratagama
éatitude
▁Anefis
▁DIVERSES
▁Dialaya
▁Dormir
▁Faanyanf
▁Jakelin
▁Mixte
▁Réussi
▁Yiili
▁advenu
▁avoua
▁centenaire
▁compliment
▁consumée
▁délicats
▁désavantage
▁détaché
▁exempts
▁felewuli
▁floraison
▁grossière
▁inacceptable
▁indulgent
▁lemurukumuni
▁magazɛn
▁maigrissait
▁malijirinin
▁menacé
▁nerveux
▁paracheve
▁païennes
▁prénatale
Tɛrɛbɔ
arrondiss
imprime
issoko
▁Daraja
▁Lakamu
▁MAGI
▁Npyɛ
▁Ogusi
▁Sorcière
▁Wajibi
▁bolokɔfɛfɛn
▁budg
▁divertissement
▁déclench
▁délinquan
▁fertiles
▁invétéré
▁lauréat
▁ngounan
▁successifs
▁vivacité
▁Tesaliti
▁gawaliw
▁mefaits
▁nisondiya
▁quarantaine
▁tyran
Ascen
BEKE
Education
KISIMA
Raina
SOGOMA
embour
esperian
intrigu
nzurna
prudemment
▁Claude
▁Démas
▁Niamakoro
▁Repentant
▁Somonos
▁Sound
▁banditisme
▁bleuies
▁couscoussier
▁dabilenin
▁dugusajɛ
▁enragé
▁humiliant
▁intercéde
▁léger
▁modérés
▁médiateur
▁participative
▁positif
Misagana
phisme
▁Fiyɛlikɛ
▁Matthias
▁Mobilis
▁dufamasa
▁démasqu
▁jigisɛmɛ
▁porokoto
▁redeven
▁rédige
lasɔsɔ
phyla
toxin
yeleku
évertu
▁Damaris
▁Kayitaa
▁Markaya
▁Oliwusun
▁apparente
▁banakɔtaa
▁conquête
▁découdre
▁démange
▁fariŋɛɲɛ
▁forfait
▁impressionnant
▁jihadistes
▁modérée
▁Arijan
▁annuelles
▁sanhédrites
inimiti
▁Draman
▁Prétoire
▁kilogramme
▁regrettable
▁saccag
▁sukasidɔnkili
HÉ
annihil
enténèbre
muguɲari
oussou
philosophie
soorakun
urukanfuga
▁NOM
▁Sokonon
▁bougé
▁congrès
▁crinière
▁falsifi
▁interrompu
▁lévite
▁seereyasuw
▁sincère
▁Ɲɔgɔndɛmɛ
abitani
escalad
▁Choisi
▁Gawus
▁Huit
▁bajanbila
▁impén
▁nkasaki
▁récidive
endormais
poussiére
▁Assurément
▁fɔnyɔn
▁kumandan
▁ntɔmɔlɔn
▁nyankara
▁sigisunkuru
▁volume
▁Kasolamɔgɔ
▁bouill
▁maharaba
▁spect
▁ɛntɛri
Bâtard
jɔlɔ
▁Daɲɛsure
▁discutailler
▁débroussaill
▁galettes
▁malagas
▁Crâne
▁Grillé
▁abrutis
▁baganbageyara
▁conquis
▁dusumango
▁froiss
▁stable
▁Informé
▁Surpris
▁courbant
▁défection
▁gadonmuso
▁groupé
▁gérance
▁sociable
▁vantard
▁vibr
▁ɲagamala
▁Carol
▁affiches
▁korongoli
Muz
exécuteur
introduisirent
▁CHASSEURS
▁Guasa
▁avidement
▁dessèche
▁décence
▁garijig
▁illégalement
▁prévaloir
inaires
▁ACCO
▁sourate
▁téter
ƐSIY
▁Seriwa
▁Toukoto
▁fiévreux
▁gracieux
▁miséricordieux
▁Wikipe
▁collage
▁soufisme
▁séisme
▁ɲanimaboliba
▁Macasi
▁Tièmogo
▁lové
▁reussissiez
▁suruɲana
ukom
▁gasitiyɛn
▁sabacht
▁succéd
▁turban
▁Zorobabel
▁concevoir
▁gambad
OGM
anuwɛli
embauch
▁maraîchage
▁misiriwele
▁misɛninw
▁ɲelenin
▁foulard
▁jinɛsitanɛ
▁kidali
▁syɛkulukulu
Honneur
aticiens
▁conférences
▁inattendu
▁jinɛgɛnnaw
▁sentence
▁zélé
ANPE
ngoroki
yɔlɔkɔ
▁Nbajala
▁chassie
omisini
▁Soonin
▁charpentier
▁écorch
guruba
▁Sɔnnikɛyɔrɔ
▁encadré
▁volcan
▁alikamabuuru
injection
▁Barisabasi
▁Turelakaw
▁patrimoine
héroï
épanoui
▁kɔtigɛnɔ
▁wulè
▁wɛɛrɛ
▁Tulumafɛnw
apens
ratifs
▁bawolofɔ
▁fyeku
▁pɔmitɛrɛ
audience
▁défricher
▁ironis
EMƆ
Retire
▁Rhod
▁Sonyalikɛla
▁happe
▁réfut
ontroverse
▁Nyanson
▁Proté
▁Tryph
▁farikansi
▁jukɔrɔmadondon
▁laadalaɲɛmɔgɔw
▁marchât
▁sécou
hameçon
▁ballon
▁enrichissant
Claudi
esquiv
▁yanninnɔ
▁Baatara
▁Linux
▁gonbolo
▁légales
▁makoɲɛfɛn
▁Publius
▁Yɛrɛwolo
▁dɔgɔdɔgɔnin
▁flambée
▁protege
▁gwele
▁maudira
Debout
▁senkarimaka
▁peigne
Gue
épuisement
▁Raconte
▁kosobe
copyright
lante
▁Kulukutu
▁Shujuru
▁jaillirent
▁Couve
hitaba
▁Parfait
▁Parvenu
▁lentilles
▁vomir
▁ɲamaɲama
▁professionnalis
▁régénération
▁Girin
▁mystifi
▁bénissait
▁minimise
▁savane
▁sumansɛnɛ
▁touchât
▁Philip
▁feuillages
▁sɛnɛkɛminɛnw
▁terrassé
▁inséré
▁complaisance
arakolés
▁fetiche
▁damiye
▁jirɔs
▁retiens
▁honteuses
ndeliman
▁Diakha
▁Malowusu
▁cingl
▁durunu
▁évolue
▁jiribalanyɛlɛn
▁Alize
▁Siniaro
▁fɛrɛfɛrɛ
▁aidiez
▁Évite
▁divisa
▁kelennajɔ
momentanément
▁orbitres
Ikebana
▁battais
▁Pardonne
▁nonchala
LƆN
wahili
▁Kɔniya
émerveillement
▁amoureuse
IRI
▁vivrons
économise
▁bossu
▁sucer
▁Dusukundimi
▁mandarine
▁créance
▁Buari
▁bruyant
▁Fɛlɛ
▁Tonnkan
▁Fɛrɛbɔ
▁PRI
▁Partagez
▁confidents
▁gintan
▁surafana
azɛn
▁rafle
▁Mèrè
IST
innovation
▁nunnafɔ
articul
▁poindre
▁proue
▁Hajala
▁donsobanfula
tabun
▁amusant
▁lamentations
tolatan
▁Fɛri
Purifiez
▁flamb
▁tigadɛgɛ
nquiers
encornait
▁Kuyu
▁brillante
▁wɔri
njen
▁Farankan
▁nyenasisi
▁Tomakoro
ƐW
▁coexistence
▁occasionnel
▁rapatriés
▁Ɔɔ
ntiacides
▁Guyan
ɔgɔsɔgɔnijɛ
▁Diplomatique
▁sumantigɛ
▁dénombr
▁gentilité
▁Genu
▁mɔgɔmandi
▁ɲuguji
▁JƆ
▁talonnaient
ɲaansa
▁dumunibakɛ
▁poursuivais
▁pén
assèche
chisme
▁Senegali
▁débar
▁kirikasa
▁planches
agora
▁Asɔsi
situsi
▁enlevât
▁entrions
▁kunkologeleya
▁italique
▁hameaux
▁Layidu
▁sacrificiel
Kankarimansa
tergal
▁cɛndala
▁Kunnyan
▁amasser
▁indigné
paille
▁jensen
▁marafabaliya
▁Kunkolokolo
▁Dɛsɛ
▁convenir
▁dévasté
▁kurunbɛlɛnnɛgɛ
ologique
enjôlèrent
▁antiyi
▁bolokarimaka
▁ntɛnɛnsu
▁prenons
▁urina
▁voyagé
▁Ouagadou
▁mɛrr
empressèrent
▁kungotaga
▁tolér
▁Moribugu
▁cramp
▁résume
▁barokeyoro
égorges
▁Sinsan
▁ossements
affaiss
▁forosɛnɛ
Nfir
▁Balakè
▁Begi
▁liard
mantique
▁malveillance
▁hésiter
▁marchions
▁vociféraient
RƐN
▁Alamisadon
▁Donsonkoni
▁affluent
▁assaillent
▁desserrent
▁remerciements
▁wajuli
▁contrari
▁Solale
▁dugubakɔnɔmɔgɔw
▁Mansarin
jiforoko
minɛwara
▁Kankaba
étracycline
enterrèrent
▁lunatique
▁souriant
gabɔ
▁raff
▁linguist
Fluor
▁Samuel
▁fleches
nninnɔ
▁Répar
▁contigu
houe
▁épineux
▁Warimisɛn
▁rituelle
fonamid
yatire
▁Sigiɲɔgɔnjugu
▁jujube
▁manding
▁réclamaient
▁Kolonton
▁Keguya
▁Zeus
▁bâtissez
▁corrompre
▁XII
▁récoltées
▁Kokoronin
▁inondé
brèche
▁Patara
▁infligera
▁bloqu
▁comblant
▁herm
▁passionné
▁Libaabanu
▁avantageux
▁fesse
▁nivelé
▁mémorielle
▁nonkon
▁dénié
kɔrɔsyɛ
▁licenciement
▁saharajamana
▁audio
▁fɔkabɛnnaw
▁ladiyalifɛɛrɛ
▁raisonneur
enfrein
▁feinte
▁réfléchissons
▁kiliyan
coum
▁fiance
▁sennateliya
▁tricherie
absurd
reole
▁laboureur
▁déficien
▁façonner
ryth
▁plage
ouragan
▁émigré
▁dunukalan
▁Kulusikolon
equivalen
▁Sonsoro
▁tranquillis
genge
▁Farajɛla
▁sélectionné
▁Tonmassala
▁jiflen
▁ɲɔgɔnlajɛ
ustif
▁infl
▁cɔy
▁disperser
▁compreniez
▁craquer
▁fières
▁sanfɛbuuru
impatienter
▁satisfaisante
▁Nugula
▁éducative
▁trompeurs
raze
▁Jakha
▁Banankɔrɔ
▁Sugunɛ
▁amassé
Éloigne
▁abolie
▁seriɲɔ
▁fermeté
▁Jobagatɔ
▁tentative
▁rattache
▁passive
▁sɔrɔyiriwasira
▁malodɛgɛ
▁officier
▁octro
▁Timiya
▁dindon
▁ɲɛnamaminɛjɔn
▁Jolibɔbana
endort
▁danmado
▁sogokasa
▁Lisitir
▁Martiniquais
▁KƆLƆ
▁sucé
masiihu
▁Bukar
▁possédais
▁déshonnête
▁fankelensa
▁Ɲamakala
▁ɲafala
▁lenpenba
▁nyaami
▁exhortèrent
iasis
éveiller
▁boonsibɔ
▁Jadis
pès
▁Scy
▁Songoyi
oraison
▁sourit
▁digidigi
▁kunnankolon
ukhi
▁ɲɛnkili
Éléphant
▁comprendront
▁confronta
▁reconnaissaient
▁Nalonma
▁impudi
▁pigeon
▁Pater
▁SUGU
Tè
▁dépouillèrent
▁épaissi
▁SYE
▁castrez
▁tanganibaga
ndow
▁Gour
▁fourbe
▁blessaient
▁doutèrent
▁dynamique
▁sympathique
▁kungokɔnɔdi
▁chapeaux
▁imbib
eugle
▁communal
haraka
▁bomb
▁sagokɛbaliya
▁Dougou
épris
▁exhortant
▁crever
▁biɲɛkolo
▁kuncɛbaya
▁jolifɔn
▁pesait
▁réper
endette
intar
▁sennataama
dmonesta
ENFAN
sabba
▁ɲɔsusu
ernellement
▁parlotte
▁promenaient
▁forobaboli
▁thésauriser
▁étudié
ébranler
▁mâche
dadɔnkili
▁divulguees
▁fugulabilen
▁ɲɛŋunu
▁Harani
▁Mark
▁Jarafanga
damné
▁cɛfarinto
thme
▁bubale
▁exécutoire
▁restions
oralité
▁arabudugu
GNE
▁tinkoro
▁Nikola
▁Kaguè
▁existantes
▁pendre
▁Bakilu
▁fortifiait
FƐ
▁alikari
▁tɔnkɔnɔ
▁Ɲɛgɛn
▁brisons
▁emisiyɔn
▁epinari
observait
▁timiyalan
appelât
▁combattons
▁selincinin
▁dɛgɛdun
▁beledennin
▁biribiri
▁séducteur
ruki
▁minɛnsigilan
▁tilebinfɛ
▁dabalibanko
▁Waajulikɛla
▁ɲɛkɔmi
▁Kɔngɔtɔso
index
▁bienheureux
▁kɔnɔnajuguya
▁bienheureuse
▁nɛgɛhaya
▁désaccord
▁foisonnement
bè
▁autorise
▁Koronw
outrageaient
▁périodiquement
▁Mariage
▁tɔnɲɛnajɛ
▁bileman
▁Gakuru
▁vitalité
taillons
▁Nyonin
▁kogoseleke
▁jalasun
▁shubaamuso
▁Calcium
▁Situation
▁Keri
▁ntee
▁Tomon
▁vanité
▁bavardaient
▁glaci
▁causaient
▁Sirakoro
▁Tajurusara
▁trafiquer
▁Dengue
▁tɔgɔfɛbila
▁pimentée
▁Nikènè
▁fasojɔ
▁hivernages
arɛti
▁augmentait
dilection
▁chevrier
▁vivifie
▁Sanufagala
▁bourdonne
▁réd
▁fiel
▁donitala
▁louaient
▁Tabarika
▁arrangeons
▁dalamato
▁galate
▁éloquent
▁wusulen
▁causons
▁Beth
▁couvée
▁déflorée
▁honora
ignure
▁prodigue
▁tutelle
actualis
▁UNE
▁Kulukɔrɔ
▁sumusumu
▁élaborée
▁mourez
▁miliyɔn
▁arrangerez
escence
▁sagasogo
imposteurs
▁gît
▁fatale
▁sagagɛn
▁Kuran
▁Nyamanjeni
▁Azikaw
▁Onezi
▁Npyè
▁piét
tative
▁courette
▁aliham
▁mystérieuse
▁surgi
▁émerveillé
▁interrogées
▁lapidèrent
aliéna
▁Elimasi
▁dompter
▁revit
▁bouleverser
énerver
▁maɲumankokan
sonifa
▁Jalaya
▁jadilan
▁jagase
▁Continue
▁yɛrɛwolokɛ
▁detourner
▁impitoyable
▁Malobaliya
▁reconduire
▁faiblissait
▁nourrissez
anbedu
▁impuni
▁Tomakɔrɔ
▁énergiquement
▁cherchiez
bokari
▁abandonnons
▁soulevaient
ophtalm
▁croissant
▁incont
forcé
▁shoor
▁sisannino
▁renommé
▁Kanku
▁retirèrent
▁choléra
▁Tɔrɔ
▁Ŋala
▁remarier
▁ɲɛjibɔ
▁buluku
▁Bayan
▁SOCI
▁Sinɛnin
▁Kofi
▁senfunu
▁nɔfɛgɛn
▁convulsions
▁reconnurent
rouvent
▁Jeneba
dulila
▁baabaa
▁matinales
▁wolonpɛtɛ
▁barikantanyakow
▁kunkoron
magne
▁rude
envahiss
hypo
▁élan
▁dɔgɔmani
▁sentɛgɛ
MP
▁Régionale
▁voeu
obre
▁komen
▁pop
▁sumantigɛla
▁empêchons
▁ɲɛgɛnɛkɛ
Jetez
▁jɔbagaba
▁Binkannikɛla
▁Observer
rceau
▁transgressé
▁Chine
embarquèrent
▁garange
enrichissent
ankho
affrontements
▁Nɔrɔnna
▁sinistre
▁décourager
▁hérisse
▁journalier
fren
▁sɛgɛnbaatɔ
▁jatemine
▁jolidɛsɛ
▁kunnadiya
▁centrales
ILE
▁Kilo
▁pesant
▁AMAD
▁korobayara
▁politikitɔn
▁ɲɛgannen
▁Cheikou
▁hatɛ
▁yennino
▁attesté
▁Bɛlɛ
▁régnerait
▁nyɛgɛn
▁teigne
▁rassit
▁sport
▁16214
vieillissement
▁Siraju
▁chronique
▁rosser
▁pouce
▁sadique
▁repoussé
▁siratɛgɛ
▁Pouvoir
▁épineuse
créatif
▁Lamb
▁Moto
▁oserait
▁Jigise
▁sennaanimafɛnw
▁Ntama
ritis
▁plaisante
▁subahanalayi
nyine
▁reculons
▁Wouy
▁moralité
ɔgɔlɔn
▁tresserai
▁sariyatabulon
▁alatogo
étrangler
▁conversait
anogola
inspirent
▁kasolad
▁devancé
▁gongo
nkarani
▁Nansara
▁fagon
écrasent
▁Ciny
étille
▁frouss
haaa
▁cuillerée
▁Kɔnɔtiɲɛ
▁Kɔɔri
▁Tard
rouni
▁tonsofin
▁ekolikaramogo
▁kunbayali
avéra
▁Jigituguton
▁tortillon
IF
mankɔ
▁Mel
▁méditent
aperçue
▁Kalabaanci
▁janfanci
RÈ
▁heurter
▁construisent
▁amateur
pala
▁dénu
▁Patient
▁maudissent
▁calma
▁cachaient
ouïe
▁bozo
▁communique
▁futilité
sokoro
▁Agabusi
▁Ngolobugu
▁barbar
▁kɔlɔsilikɛla
uatabiyo
▁lutteur
▁Burufyɛ
▁mennenba
rɔti
▁Komayelemana
▁kunmayelemanen
▁Nikenekaraba
▁hâtez
Sais
▁bilakorolama
▁mugucikan
▁multipliant
▁fructifier
▁matarafabaliya
igible
▁soori
▁Kadia
▁machination
▁rompaient
▁Ngɔn
apostolat
▁Seulement
impé
impartialité
▁kolonsenna
▁KAB
▁délibération
▁Ɲininikɛla
▁assurément
▁Dɛribi
FAO
▁illettrés
Unis
▁kalankɛminɛn
▁kalisiyɔmu
▁kɔmɔsannɛnɛ
▁sufɛla
▁dununfo
▁lagosira
▁cruel
▁dɛmɛnɲɔgɔn
▁principalement
▁guida
▁jouir
ygè
▁associer
▁kannituma
▁jalamugu
▁murmurer
▁tɔgɔlafɛn
▁bamada
▁negetige
▁ridiculis
mènera
▁lagosili
▁tendrement
▁supplication
▁furukul
▁SƆRƆ
▁gravité
▁Bamakala
▁marabonda
▁Ntomona
▁kungotaa
▁taisaient
▁méritant
▁Puru
▁samaritaine
▁Imaniye
▁Africaine
▁Lisitire
exhib
aganso
agenouille
▁troublée
▁blocage
▁agité
▁nyanina
▁ôtée
▁Damako
▁Masiri
ubles
▁retourneriez
▁Goma
▁balofeere
▁neutrali
cerc
▁Vaurien
▁pardonnâmes
▁déracin
▁Abiya
▁furadama
▁polluant
▁yɛrɛmajiginnen
▁emprisonnement
lojan
▁guetter
▁koronto
géographie
hanna
▁Gaz
opposent
▁révoltent
▁furuworo
▁Bienfaiteur
▁saluée
▁nyenemaya
▁fourchu
▁Sufɛ
▁bɔrɛtigi
▁vertueux
▁sisima
entrepreneur
▁fɛrɛlenya
▁Sinamuso
▁imme
évolu
▁sinikɛnɛ
Adr
▁Sinbonden
▁Kuncɛ
▁Kunnatiyɛnniw
▁lujuratɔw
▁Ɲininkaliw
▁fasolamɔgɔw
▁enfourch
▁espérant
▁déshydratation
battoir
▁hakilija
▁Dugutigiden
▁Fank
▁preneur
aramaji
▁Taabolo
insistance
▁moissonnent
Foronto
Recommençons
excusent
▁crev
▁Kiiritigɛ
investissement
▁mɔgɔɲɛnama
herchez
▁LABA
foroko
▁surunman
maanin
kanfɔla
▁kuntaga
▁Kɛwale
[...]
